/**
  ******************************************************************************
  * @file    network_data_params.c
  * @author  AST Embedded Analytics Research Platform
  * @date    2026-04-22T13:21:44+0200
  * @brief   AI Tool Automatic Code Generator for Embedded NN computing
  ******************************************************************************
  * Copyright (c) 2026 STMicroelectronics.
  * All rights reserved.
  *
  * This software is licensed under terms that can be found in the LICENSE file
  * in the root directory of this software component.
  * If no LICENSE file comes with this software, it is provided AS-IS.
  ******************************************************************************
  */

#include "network_data_params.h"


/**  Activations Section  ****************************************************/
ai_handle g_network_activations_table[1 + 2] = {
  AI_HANDLE_PTR(AI_MAGIC_MARKER),
  AI_HANDLE_PTR(NULL),
  AI_HANDLE_PTR(AI_MAGIC_MARKER),
};




/**  Weights Section  ********************************************************/
AI_ALIGNED(32)
const ai_u64 s_network_weights_array_u64[54401] = {
  0x3bbf5c203c8adea8U, 0x3d75159a3d608a4eU, 0xbcf27828bbee5fd0U, 0x3d4db13a3d8ac4f9U,
  0x3d150c10bda407e0U, 0x3d93555dbd937b1eU, 0x3d82d59dbda44460U, 0x3d45ebba3c8772c8U,
  0xbd35ff833d136eb2U, 0xbce5726e3c8be804U, 0xbd5669ba3d259e0cU, 0xbc2e5aa83d731a0eU,
  0xba1e8c003cc75560U, 0xbd0597dd3d4bc37aU, 0x3d5ab6a63d86632dU, 0x3cfe8b543d60dc92U,
  0x3d7bd4d6bd6f59b4U, 0xbc13ecf8bd4a7f27U, 0xbc870288bd9f512eU, 0x3b7ecce0bcccb702U,
  0xbd910d7f3d8373f3U, 0x3d21cbacbcbc8660U, 0x3c3b73b03b3a9d40U, 0x3d7b23e6bd50fd1cU,
  0x3d9ea88dbda0b482U, 0xbd106ababd4b0122U, 0xbd99bd833da5fe63U, 0x3d9911573d3fc7caU,
  0xbca880183c9eac0cU, 0x3ce50754bc0cb420U, 0x3d11035cbc931644U, 0xbd1ae4923d800011U,
  0xbd906ac5bd2d3ad5U, 0xbda93281bd853f71U, 0x3cebfa673d64a4c4U, 0xbcd37303bd8c8750U,
  0x3d080299bc1b6067U, 0x3d24f9e83cfc3503U, 0x3d6e9856bbdf9088U, 0xbd44a55c3d4a612eU,
  0x3d1cf044bd5678faU, 0x3d6964e63d3fbb6eU, 0xba32ca003cb9e69cU, 0x3cd63ca03d80ee2dU,
  0x3d99e6e13bb596a0U, 0x3be438303c276210U, 0xbbeeb714bcfdf025U, 0xbbe12498bca2bfd8U,
  0xbdb8a62e3b05ca80U, 0xbd0b65433b3d3bdfU, 0xbd230b9d3ca9dc20U, 0xbb5757563d03e1fdU,
  0x3d357920bd09f345U, 0xbda0a3cebc54dddfU, 0x3c0d8ba8bd5e497eU, 0xbb4520c03d8f21e3U,
  0x3d968a6bbcb65e6eU, 0x3d9eafe1ba55f480U, 0x3da0fcb53b790c40U, 0x3d1236b1bd8608c2U,
  0x3d1ead5b3d96f2dbU, 0xbccdae5a3d309a3aU, 0x3d52bdbc3d50f380U, 0x3d08e07ebd7ebfd1U,
  0x3d358e1dbcdfd87bU, 0xbce56887bc172430U, 0x3d08084d3d6f02f1U, 0x3d8b898a3d76e58aU,
  0x3d80f75d3b942dc6U, 0x3d215f64bc8a90a0U, 0xbd5205f03da10221U, 0xbd5fc5e1bc48e820U,
  0x3c30fde83b822245U, 0xbd09e2293cb58010U, 0xbcbd89edbd0c107fU, 0x3ced09f9bd171bfeU,
  0xbc2050713d07ac73U, 0x3cad49233ce424f7U, 0xbd565797bcd5d83cU, 0x3c476b553cbf2483U,
  0x3bc1811fbd2673e4U, 0xbda302a4bce0386bU, 0xb9b2d8c53c1361baU, 0x3cd57804bd700616U,
  0x3d3bc2263d27e63aU, 0x3d09a04ebc3ac388U, 0x3d631c39bd42f493U, 0xbda5a301bcf1326aU,
  0x3c60706abcd95fefU, 0x3d2ca64e3a926d07U, 0x3ce8ce1e3c9f989dU, 0x3cc7ffcabc899f86U,
  0xbd07768abdb79a33U, 0x3d325ff23d2ca1abU, 0xbca671a8bdbf8b49U, 0x3d24f161bd8ce8e2U,
  0x3d0cbca73ca7d2f1U, 0x3cf5c9acbcce6646U, 0xbd7318a83d95d14fU, 0xbcfcc264bd7f45a9U,
  0x3c982fc8bdb17527U, 0xbd8d8ce1bcbab91bU, 0x3c2513ae3d2d5f25U, 0x3cf9aae6bca7958bU,
  0xbda7ce75bda687a2U, 0x3cf115c6bd6ac622U, 0x3d84bf5cbd82901eU, 0x3c85a416bd70b586U,
  0x3d024fabbdd2817fU, 0xbdab58c93cf19b29U, 0x3d31b81b3d6c6bfbU, 0x3c586850bbe770a0U,
  0x3d00c7d6bd5309bcU, 0xbc248e90bc610b90U, 0x3cae3c81bd41720dU, 0xbd56aac43d4ad7aaU,
  0xbd209428bd99ce14U, 0xbd0e1fccbdc9547bU, 0xbd7183cb3ca6eac0U, 0x3b15ad87bd6935d4U,
  0x3dd09ebbbc4fd4baU, 0xbd2450863d37805eU, 0xbd250153bdd50509U, 0xbd8ebfe03c72085fU,
  0x3b493720bd35154fU, 0x3cb424983d36edfeU, 0xbc6b86b03d6053b2U, 0x3d0e05443d753616U,
  0x3d739f63bd26e415U, 0xbd9074f53d1acaf7U, 0x3d1138d4bd42773fU, 0xbd5950d5bd7bfc6cU,
  0xbd93e4993c0f50ddU, 0x3db5eaddbd765c92U, 0xbbe0c8a53d59192eU, 0xbd343651bccb1890U,
  0xbd3b1a373d198d91U, 0x3cf30782bd9a4f09U, 0xbd3b54cfbc7a000cU, 0xbda59280bd2077faU,
  0x3d9605833da488ffU, 0x3d407e4a3d24ae10U, 0x3c4c6ef23c9610a6U, 0xbc94b4cd3d614bd3U,
  0xba2b4cd53d71ee68U, 0x3d2ae9a8bc73958eU, 0x3d9cbdba3cfcfb3aU, 0x3da43468bd510db0U,
  0xbd8821b63cffca36U, 0xbd225a333b520721U, 0xbd9c4390bd2a453fU, 0xbcd404b43b592c08U,
  0xbd1ec9333cadce22U, 0xbd7d946e3cf513b4U, 0xbc7faf603d62429eU, 0x3d7bcf66bd9292adU,
  0xbdaa93fb3bbbea8cU, 0xbdac27363cea29bdU, 0xbd2e7f913cb1b567U, 0x3cb1785cbd93cb67U,
  0xbcd3b933bd6782b3U, 0xbddd70f4bd7b004bU, 0xbdbd8419bde8beefU, 0xbd23a4053cb83797U,
  0x3bccca853d03021eU, 0x3b9eb0ad3b98f746U, 0x3d9aef6bbd6ff100U, 0xbc95ec183cc35aacU,
  0x3c6ce5983da41a87U, 0x3c120078bce1b602U, 0x3d077bc73d0ff89dU, 0x3c3e3e88bd4dd19dU,
  0xbd87c2abbd289912U, 0xbcbc59063c974ca2U, 0x3d1cacfabd86572dU, 0xbd004e6cbd17b670U,
  0xbdbfb8203cfd7c94U, 0xbd077321bce46322U, 0x3cdec37ebcb42599U, 0x3d81d8413d88e57fU,
  0x3d38417ebd768b0eU, 0xbd264fd8bd294993U, 0x3d8358a53ca6b1ccU, 0x3ce1a148bd21684fU,
  0xbda8d6b23b416cadU, 0xbd8b68253d473655U, 0x3d974204bd7cb3d7U, 0xbda5cc423d42d5fbU,
  0xbda0e7a6bc4cf8cbU, 0x3cad459bbc122071U, 0x3d16cd0fbd912b41U, 0xbd0137fcbcd898e1U,
  0xbd803eb23b8bd18cU, 0x3cd16046bca364e9U, 0xbda137d3bd512c0aU, 0x3d1d7daebd9a8261U,
  0x3bfa12103d872487U, 0x3b7802803d929ef9U, 0xbcda0dcbbcdb79e0U, 0xbd9a69603d564589U,
  0x3d9f12c83d5ca5b7U, 0xbd9c4eebbd95a57fU, 0xb9af9a08bc3bb1e6U, 0x3d1e42303cfd3361U,
  0x3d674002bd247ee4U, 0xbd9362cf3cfc1828U, 0xbcf0f8dfbccce97bU, 0xbba2a9ba3cfdcc0cU,
  0xbd7008903cb8d3e7U, 0xbd35c1b53c9f5584U, 0xbcb38892bd9d585cU, 0x3da22b573d8e100bU,
  0x3d75f03e3aa5ef8cU, 0xbca5a97fbd5c020dU, 0x3c1fae513d374dfaU, 0xbd91abfb3d18ce58U,
  0xbda4d43a3d026a22U, 0xbca56f0cbcfb7c38U, 0xbd8914c8bc4cf9e1U, 0xbd87b8f53c77f91dU,
  0xbd80bc2ebc979f9fU, 0x3d850c743cfd2d2dU, 0xbd88a1c9bd8cb79cU, 0x3d705e26bc9669bcU,
  0xbd856a2b3ceba6f0U, 0x3d8fea19bd2b192fU, 0x3d8644083d4c708bU, 0xbd34122eba461422U,
  0xbd8d5cd43d4cd620U, 0xbc4f67debd93a909U, 0xbd3bf8cabd135170U, 0xbd0de91c3a1566eeU,
  0xbb18ca47bd7dc1e3U, 0x3cab0827ba8e9558U, 0xbdbe6dafbd175716U, 0x3d1d87793d91c345U,
  0xbd88c1673c00fdefU, 0xbc717ed03c454e68U, 0xbd25d64c3ca0f8e8U, 0x3d3a3272bd6b9e96U,
  0xbcda443fbd4244e0U, 0x3d102bf3bd1f8e6fU, 0xbc9b5551bc658cdcU, 0xbd14974f3d29f941U,
  0xbd929275bd0a015dU, 0xbd2da61bbd8dcf99U, 0xbccde6213c981f3fU, 0x3d34a22dbc52d8ccU,
  0x3c16d31bbd9b236fU, 0xbd4b90fbbbc5619eU, 0x3d56a0f43d8becb5U, 0xbda26166bd866e89U,
  0x3d5ff0bebd21dfbfU, 0x3d154f59bd43dcc3U, 0x3c8c4da5bd8fbbbeU, 0xbdb90bfbbdba5724U,
  0xbc4a2afcbdb8ddcdU, 0xbdc3460abbdb2a0bU, 0xbd9146b4bdb7376cU, 0xbd9e60873d4f3548U,
  0x3cc96818bc290f73U, 0xbd02d5e9bd2ab60bU, 0xbdaf923a3c98177fU, 0xbb01de76bd6a026aU,
  0x3d6c5f9b3ccd9e32U, 0x3d328edabd975561U, 0x3c2f48a0bd9f858fU, 0x3d66ec253be1fed0U,
  0xbdb40b79bd96f688U, 0x3d3c52513c86f371U, 0xbd892cd13cb17db8U, 0xbd449e5cbd019436U,
  0xbcce005c3d7cd816U, 0x3d7687223d6f7d9cU, 0xbda1bcc7bd9017f0U, 0x3ca4867ebdc46082U,
  0x3c053dabbc4ed768U, 0x3c3d12453b466277U, 0xbd7dfcef3d27d146U, 0xbb89e8903d033c74U,
  0xbd34f4a8bcfef1daU, 0x3c9679dabd04f616U, 0xbda400d63d2dd414U, 0xbbf65a24bd57a997U,
  0xbd863257bdbd190dU, 0xbd1ffab93d53f8fcU, 0xbd465e0a3d3849daU, 0xbd7d8d813d204bfeU,
  0xbd8085d3bccf5d98U, 0xbb4f43cdbdacfd06U, 0xbc953a83bd7c5e6eU, 0x3c90e44e3d14bc39U,
  0x3d055af8bd8aff40U, 0xbda346f4bd7dc222U, 0xbbd26db03c2c4a88U, 0xbd102c0ebce86ab2U,
  0x3d83bb2cbc0fb9e6U, 0x3c3506b4bcfff369U, 0xbda27adbbdbc31a3U, 0x3d1a0510bbe880ddU,
  0xbc90ccedbcb96cc1U, 0x3cd3d060bba9a16bU, 0x3c12648cbd6c6f7eU, 0xbcf834f8bd63ce17U,
  0x3da450ac3cbec349U, 0xbbb7a937bbb725bbU, 0xbd14638dbd3fe944U, 0xba7bcb00bc4635f8U,
  0x3cacf374bd7ab9b9U, 0xbd87aa6c3d8278a7U, 0xbd40f8563d82f2dfU, 0xbd514d40bcf14325U,
  0x3cf383debd93f21eU, 0xbd708246bd69e82aU, 0xbd4f78debdca7fdfU, 0xbd1d9d4cbdf6bbddU,
  0xbb2ac375bdbe18d2U, 0x3d2085cdbd73b20eU, 0xbd21e8d5bc5d73e4U, 0x3d2c7d0f3d8897c8U,
  0x3a625d80bd1d5dacU, 0x3ccd2750bd4a6faeU, 0xbcb9eafebd068822U, 0xbd4f9565bc8bdef0U,
  0x3cf78b51bccfaea2U, 0x3d290b11bd774c17U, 0x3c36a2bfbcdd5b9bU, 0x3c70d3adbdc516e8U,
  0x3d45667abdac9fe1U, 0x3d8fe569bd832e97U, 0xbc7f6254bb93fd58U, 0xbcc63c14bd429620U,
  0x3c61e2c53c2d8f23U, 0x3c5ec5ff3d3e685eU, 0xbd7112e8bd6616d2U, 0xbc4605f0bd794d4aU,
  0xbd302eba3c2343a0U, 0xbd2c001b3d4ec99eU, 0xbd2c2cecbcace0efU, 0x3c0e180f3ca44565U,
  0x3d85357b3d4d6e77U, 0x3d2aca0bbd5c40b2U, 0x3c9f7f2abd286f92U, 0xbd12a812bd984caeU,
  0xbd23c93cbd8d2a15U, 0xbcfa889fbcff7bf2U, 0x3cf6512a3c1d21eeU, 0x3b8b187a3c53edf7U,
  0xbccda23a3d60d33aU, 0x3d6e7e62bd71e598U, 0x3d82b1cdbd98ea61U, 0xbd3d777ebd14cb99U,
  0x3b88cd80bb91e9c0U, 0x3ccf86b9bae1d480U, 0xbcea311f3cd193afU, 0x3d3af6343d069a4fU,
  0xbd3475033d35d158U, 0xbd2ab6e5bd001d89U, 0xbd089d753d2ae8e2U, 0x373b8000bd59ac8eU,
  0xbbb15aff3d87bf62U, 0x3d212ee03d9166e1U, 0x3d8478373d319850U, 0xbbe165603b37b7e0U,
  0xbd3c1cbfbd072f68U, 0xbc6b5e10bd5aaedaU, 0x3bb448003d92ad43U, 0xbd2771ef3d114d98U,
  0x3d1ad23ebd8e5d86U, 0x3c82e4a8bce8d61cU, 0xbcdcd9dabba578b0U, 0xbd9557bf3d03253aU,
  0xbd62f7c2b9d2c200U, 0xbd960a5a3d9734d9U, 0xbd9b22db3d715b2aU, 0xbd23a998bcda6165U,
  0x3c7964703cbea058U, 0xbc0df0783d5174baU, 0xbd2d34f4bd5def99U, 0x3d8eb6ad3cae1858U,
  0x3c190b383da2c1a5U, 0xbd630529bd61f0c2U, 0x3d8862ddbd9a5665U, 0xbcb51ce8bd9f2127U,
  0x3c5c2f003d35189eU, 0x3ce1c6d83d5e1ae2U, 0x3d85b5493d9568c3U, 0xbcb602d23d6c819eU,
  0x3d07b75e3c98827cU, 0xbd1303d1bbc99c10U, 0xbd5b744cbd07449dU, 0xbd3382fabba92040U,
  0xbc8ab3ecbc383888U, 0x3c17dbc8bd7fac1aU, 0x3d8927413d45064aU, 0x3d935939bda5bf5bU,
  0xbd8836bbbbc721f0U, 0xbd67e7a53c2bc548U, 0x3c8cbfe43d460a62U, 0x3d830d27bd8410e9U,
  0xbd5590e63ccd5fa4U, 0x3d9ef5a9bd6c6696U, 0xbd867a533c18f280U, 0x3d65d5ee3d166864U,
  0x3cbacb043d0242e2U, 0xbb9f2ce03d9edea5U, 0xbd8740fa3d3fe192U, 0xbd97867dbc2eb2e8U,
  0x3c0b7398bc93b5f8U, 0x3cfb91abbd73d3f9U, 0xbcd239c43bce1bf0U, 0x3dc664933db5179eU,
  0x3d9ee6423d23f0a2U, 0x3bc9fdf13dd48925U, 0x3d92d1ad3db465a8U, 0xbcb601013bd38554U,
  0xbd477886bb47ba8dU, 0x3d8ee3643c4ff66bU, 0x3d9d4a5d3d8d71dbU, 0x3c8783dc3d91166dU,
  0x3cc5f8c43c4b6a60U, 0xbd03df893d8f455fU, 0xbce5d6183d13938aU, 0x3e0d81c33ce0fbb2U,
  0x3e31276e3e48fd9bU, 0x3e25eb723dcd9fa8U, 0x3e0d125a3e6653c5U, 0x3e248b133d1e0317U,
  0x3e5a05bd3e7acee4U, 0x3e1a86973e3c7c7bU, 0x3e5655803e572a12U, 0x3d1f6f0a3e0d5cc0U,
  0x3c1101a53d9e82d4U, 0xbd42cc91bca74eeaU, 0xbd51c3dabc35cb38U, 0x3c55897e3d70ecd2U,
  0xbb8874d33d66c90dU, 0x3c312b613e236b68U, 0x3def55fdbcd8834fU, 0x3c395b8e3da1fd75U,
  0x3c983aacbc9615aeU, 0x3be74864bdc110d5U, 0xbe76aede3dd30e3aU, 0xbccb288ebe75b2c6U,
  0x3e0ff974bb30b18cU, 0x3e4592883e4a9f6cU, 0x3da0af5f3d08cba8U, 0x3ceb8094bd4752a0U,
  0x36c540003d9d1291U, 0xbd19befd3d901932U, 0x3dd7437ebd907aa2U, 0x3ce1e7d43e1346caU,
  0x3e5608733d041d84U, 0x3e5a00183e542eb8U, 0x3e1770933d680996U, 0x3d0a6d453b589253U,
  0x3e2d44373c70aa9aU, 0x3d9f87513d72c441U, 0xbd7a75e73c545be2U, 0x3dac8f8cb9c724edU,
  0x3c5dcf2e3e556c21U, 0x3d83bc853daee8ffU, 0xbd9885063cd55510U, 0x3dc41b573d58d57cU,
  0x3e96ca2a3da373fbU, 0x3e3120853e5a3aceU, 0x3e289daa3dbfdff1U, 0x3dfd79633dabc1efU,
  0xbd6e4ccf3c725240U, 0xbe0871bcbe22bec5U, 0x3c87c814bdcfc644U, 0xbd985246bd8b7d74U,
  0xb919099b3d4a0288U, 0x3d0f762dbe0c4353U, 0x3df27faa3d02034bU, 0x3d8cfc7dbca605c5U,
  0xbd9d8448ba9424c0U, 0x3d818a543d200269U, 0x3e1e4d5a3da5c49eU, 0x3d43e8ac3e84d7ffU,
  0x3d3776553d0e4b20U, 0x3d97cd94bc95af4fU, 0xbd7fe2bf3d005164U, 0xbe132115be64bc0bU,
  0x3c48683f3c15a9b9U, 0xbc75da6b3d0a0d1bU, 0x3d0167d9bde7e070U, 0x3d05b093bd36217bU,
  0x3e4e02193da20f91U, 0xbca45eba3e0256b2U, 0xbdac9dc23cabaaa4U, 0xbc8d6cacbd6a9250U,
  0x3bf00733bdd8996cU, 0xbc2633083d165187U, 0x3de5be90bd4649f5U, 0x3beb9bf83d45a9ffU,
  0x3c0a2adcbdff0e92U, 0xbd8f4366bdb5501aU, 0x3d9ea3b2bcdce0d9U, 0xbd8bca5d3d5e8a86U,
  0xbdd0d854bdfb2dfcU, 0x3e4240f03ce3e042U, 0x3eb5accc3e5a4a45U, 0xbd9251473d9c09eeU,
  0x3c36f6473cddf9a4U, 0xbde222223dcfd5ddU, 0x3d30d8bcbe1ab710U, 0xbcdee216bd9f50afU,
  0x3ad7a80d3de612d7U, 0xbd3ecde0bd66035fU, 0x3d82ac26bc7a8f95U, 0xbd4068e5bd4179a6U,
  0x3e07b7213dcf9200U, 0x3dbf00d53d576bbdU, 0xbd82b43bbd4f4fc5U, 0x3da118edbcc73e62U,
  0x3eb66c813ea8264dU, 0xbcc329953e1fe0d4U, 0x3d69924e3d8708b5U, 0xbdd293ca3e131d65U,
  0xbd80f4a0be662630U, 0x3d81eb8f3bb9f582U, 0x3e01d912bd17615eU, 0xbd555666bdb51d9dU,
  0xbd5bd469bdd42b18U, 0x3ba9eac83d5e5135U, 0x3db4bb933df75986U, 0x3d531ce03e0ba200U,
  0xbd18e722bd70e567U, 0x3d0c4d7f3dc14d87U, 0x3e943c113ef33915U, 0xbd479c863e5d71c1U,
  0x3b9821f43d4adcb2U, 0x3d389f893db0e899U, 0x3d425e8ebdb6a10aU, 0x3dfdb1c63dafdc2dU,
  0xbd845d46bda3bca5U, 0xbd276d28be12e6b0U, 0xbda27265be128f26U, 0xbd3deddaba6e966aU,
  0xbd1a89edba84b678U, 0x3bc605053d3ec05cU, 0x3e0256de3bdb6e34U, 0x3d63758c3dd04df0U,
  0x3e4848023ecbfcffU, 0x3d3484d43bd606c8U, 0xbc159d073d7965deU, 0x3c9075c93e325776U,
  0xbd57824d3d72e1a9U, 0xbd47e56d3d08d2c5U, 0xbe5aa6ebbe22d7c2U, 0xbe32c031be088adbU,
  0xbe686822bdf02b7bU, 0x3bc1bbc7bde6cf1eU, 0xbd0b276f3ddefcb6U, 0x3d46393c3a38a9b6U,
  0x3da4d283bdaf6962U, 0x3e4c729c3e945e34U, 0x3e4b98a43ec332e6U, 0xbd48e598bd2c69f2U,
  0xbd6a3f6bbc1c7090U, 0x3d9bb6533bb6ee42U, 0x3dbe6c9f3d7b79beU, 0xbe660567bd72cc27U,
  0xbdc6da32be432e04U, 0xbde7d999be3d9d9cU, 0xbe2f74f7be513072U, 0xbd29e77f3c13e58fU,
  0x3db1745e3dd143a0U, 0xbd0297103d3da610U, 0xbd0fe0083d078bceU, 0x3e4476763e365040U,
  0x3e3e00b93eedf23dU, 0xbd3b5f5e3ce09910U, 0xbd311b913d0adba4U, 0x3d25c4e2bc63dc94U,
  0x3d478da53e057225U, 0xbdad6b48bd69820bU, 0x3dd57d713d862c62U, 0xbe43d2283d98bb19U,
  0xbdfd1492bd308bacU, 0x3b91da343da960dbU, 0xbd0547e53c9ca370U, 0x3d842e67bd7f0e6cU,
  0xbdfdeaa9bd1fec3fU, 0x3dbe19503cf7d2cdU, 0x3e8047003f09bde3U, 0x3be003f13c849fcaU,
  0x3d7a09e6bd64eeaaU, 0x3d7aa12e3db6368fU, 0x3dd219063dd91e10U, 0x3deb2a013ddf15faU,
  0x3c70ac1e3d7b99efU, 0xbc556bd0bdda3c33U, 0xbd696827bcb8e577U, 0x3d9c6ddc3da7c793U,
  0xbc83c699bd0ccd75U, 0x3d309793bcb7c931U, 0xbe1c0925bd4a3524U, 0x3dea4953bbe2f84fU,
  0x3e9e29de3ed84870U, 0x3dca57843e17ba23U, 0xbbf5ad10bbb59440U, 0xbc866637bd1ddb87U,
  0xbc6fe10b3de5d452U, 0xbe179d7c3dce6d7dU, 0x3c8fc10dbda754cdU, 0xbd6436c0bda68195U,
  0xbd2cafe8bdd419eaU, 0x3db7bd783e161343U, 0xbcc5b51dbd87ce32U, 0xbe3352f7bde3450fU,
  0x3d9a36debdfd6d68U, 0x3ddaef2c3d4dfd38U, 0x3ec013f53e31cfddU, 0xbc8ab7733e0fe237U,
  0xbd1fffbebb7a1500U, 0xbe2e314e3d6cd019U, 0x3d854ff13db521baU, 0xbe0d91333b73f4b2U,
  0xbd865ff9bde5f675U, 0xbdf12028bdd8beaeU, 0x3de0546fbd974711U, 0x3d8a2b5a3e384dd4U,
  0xbdee4d86bd4d459fU, 0xbe0c3af4bdfbe52eU, 0x3da75bfd3c1ff87fU, 0x3dc7bd153e56bd0cU,
  0x3ecc00cf3df1acbbU, 0x3d7db7743e28fc3fU, 0x3d54bfbebd694eddU, 0xbcb8d5133d1d2060U,
  0xbc920e153da87d78U, 0xbe3b052abdc1ece0U, 0xbdd197d9be122856U, 0x3dbee087bc3dcca4U,
  0x3e4736333cb29195U, 0xbd508ae23e67dfa0U, 0xbe5b18e7bda8b18dU, 0xbe0c1043bd1d18c8U,
  0x3dfae5ca3dde18b2U, 0x3d2050533dd9dd44U, 0x3f0c2b333df6d049U, 0x3dc2b8cc3d9e821fU,
  0xbc9fc561bc0570a4U, 0xbc860e98bd5422eaU, 0xbd81f86b3cf61c89U, 0xbd96395ebe109e47U,
  0x3d62d8a8bd1ce1bcU, 0x3d5dd2a23dbd9a81U, 0x3d9288653dd43dc6U, 0xbe61162fbd622abeU,
  0xbbf6acdcbe2627abU, 0x3d899dc63de5aaa0U, 0x3d46f071bc1c25f2U, 0x3da920783aa04a33U,
  0x3f0c71493dcbc6d6U, 0x3d8c735f3e25fa43U, 0x3db085cd3d2c1edfU, 0xbcae486d3b9c3bd4U,
  0xbe84ee32be5b16a4U, 0xbdf34b53bdf474dfU, 0x3e0114443c62f414U, 0x3e5fb3913e52aa3eU,
  0x3e19c08e3e131109U, 0xbe84b757bd7517cbU, 0x3e6729943dc5bdb1U, 0x3cfd16de3e22fd62U,
  0xbd3fe4513dd969ecU, 0x3e72466a3c0b8308U, 0x3ef9c2be3e5806e7U, 0x3da42b6e3e494377U,
  0x3d5cc0ca3c6884a0U, 0xbdc1ce83bd197decU, 0xbe134d7cbd2acfcbU, 0x3d148b31be27bae8U,
  0x3d0ab15a3c205abdU, 0x3ea396413e9b6b04U, 0x3c87640b3e3b2178U, 0xbd6844b9be918df8U,
  0x3d94afeb3d9f1b92U, 0x3dd142fb3d532c52U, 0xbdb9299bbd111be0U, 0x3e7e90b7bcaacca2U,
  0x3ec377473e8991f0U, 0x3dbf1a6d3e3f1cdbU, 0xbd302034bd9049c2U, 0xbd41756b3c71a62aU,
  0xbd8c3563bd9c3353U, 0x3d13cb3bbcdc89e5U, 0x3e84abd33e460374U, 0x3e9ee1c73e25c1a2U,
  0xbd8d18f93d8605d1U, 0x3ce2d2e1be237ce3U, 0x3c022ac8bd93386aU, 0xbd1851cabc8497a9U,
  0xbd8de4c83d1c3579U, 0x3e04b42e3d8cc928U, 0x3e9fdd2b3e74f397U, 0xbcb892083ddd174fU,
  0xbba4982b3c421f17U, 0xbe4651e23d056716U, 0xbdbb2dd9bc5be90dU, 0x3da3f5893d51b677U,
  0x3e588a6d3dd2c90fU, 0x3e1f2ca03e201bd7U, 0xbe4029efbd5c2d4cU, 0xbe547e24be284382U,
  0xbe8b556abd7d3a46U, 0xbd4720eabe3f588cU, 0xbbcc4648bd8dbebeU, 0x3e0c8e873cedf1f7U,
  0x3e5dbf073e379f37U, 0xbd61872c3d901291U, 0x3cefbf2c3d74113aU, 0xbdba9817bde20b5aU,
  0xbba9651c3d232e3eU, 0x3e0446363e619cf8U, 0x3e1aa1e33e2a0b2dU, 0x3e06dc253d0ec081U,
  0xbc894f483dec2f3aU, 0xbdeab5f4b86a8a40U, 0xbe32a9d8bdd52ac8U, 0xbe20b012bd1386e9U,
  0xbd89e66abded1802U, 0xbc58aaefbdf19fdbU, 0x3dd50b323e4739d7U, 0xbd4b710bbd97f6cbU,
  0x3d6e41cabd9e6e05U, 0xbe4a51c5bdb3d468U, 0x3da9f2dc3d4aea17U, 0x3e01e3163e1caf90U,
  0x3d0c4e263e079435U, 0x3d6bdccbbc39951fU, 0xbd60dce03df4ebaaU, 0xbc62941bbda0eef9U,
  0xbe4eb5d9bdb0dacfU, 0xbe2cc33ebe6ac398U, 0xbe02d515be204842U, 0xbdc4eff7bccc3fdfU,
  0xbd43aa7d3e0a0d39U, 0xbd8894b83cf7d93cU, 0xbd4a7df5bd19de09U, 0x3e31f327bdb39363U,
  0x3d8b4bb13e3737d2U, 0x3e5c8e5e3dc1fa62U, 0x3e44e0c83db74878U, 0x3e8a19513e1404bfU,
  0xbd650dc23d952766U, 0xbdaf070fbcdd40d4U, 0xbda963ffbe3269ecU, 0xbe30f1ffbe0851c3U,
  0xbe16d477bd81a94cU, 0x3e02b634baef2c17U, 0xbca605ee3d14fdc5U, 0xbd2312813d4762caU,
  0x3d47725e3d868861U, 0xbcb4b79ebd8de9c5U, 0x3d7f366e3dc1e6d2U, 0x3e3965063d30222cU,
  0x3e9f6d233eb7335fU, 0x3d3e3c8dbd5b7306U, 0x3d95b21e3b8afd8aU, 0xbcd489ab3ab37981U,
  0xbb139980bdba727fU, 0x3d9179e6bba9dd6dU, 0xbd3c2e923d85d751U, 0x3de4e9a03db62c30U,
  0x3dd9285b3d2231a0U, 0xbda324e83d522e4aU, 0x3ca5e1583c9cc6a4U, 0xb98499003ba78a90U,
  0x3dc194603cba832aU, 0x3e9b89813e206656U, 0x3de34ab53e8e699eU, 0x3e592e1c3e503464U,
  0x3e152f563e79ab98U, 0x3d5d8f1a3ce8d478U, 0x3df324d83c09fa6bU, 0xbca52d953d1d213eU,
  0x3dc13590bd82fdafU, 0x3d78775f3dd61e05U, 0xbda15538bd9cd976U, 0x3d99613fbd901883U,
  0x3d647b0e3d808743U, 0x3d3285623b3701e0U, 0xbc90ab1cbc87a6e8U, 0x3d81fc473d415d0eU,
  0xbd905adfbccb0900U, 0x3b50e4003d4b904aU, 0x392b0c33bd98c9d3U, 0x3da73eac3b9a6aefU,
  0x3d9a4b773d56c38eU, 0xbbc8f230bd643e74U, 0x3b6e4720bd3815eeU, 0x3bbe97b03d4f42a6U,
  0x3d0c6d183d73dde6U, 0x3d886cf33d3e65beU, 0x3c86aea83d6cc286U, 0xbd2b80d73d6a1662U,
  0xbd8a15bc3d248c3cU, 0x3d21f274bd50430eU, 0xbd062c913d7d6caeU, 0x3cf462813d25c6eeU,
  0x3da82276bd006888U, 0x3da417f83d8376a8U, 0x3d943fad3da6fad9U, 0x3db715913ce1922dU,
  0x3d394f0e3dd0b7e5U, 0x3d92d731bd073e47U, 0xbacbcc40bd89b823U, 0xbcefa1b23d56769aU,
  0x3c825b0c3da2f0bfU, 0xbc36a0c8bd96ce70U, 0x3d038188bb9a003eU, 0x3d935fe83d89ad88U,
  0x3d70ab25bd0aa6faU, 0x3dc809733dacbef6U, 0x3e4c48be3dc505bbU, 0x3dee101c3e2d29d9U,
  0x3e0f9e2abd434ef0U, 0x3e2e3f133d9aee41U, 0x3e1c262e3e4413e1U, 0x3e16c2ba3d84547dU,
  0xbd8f04df3d5bc809U, 0xbd040d4d3d115f4cU, 0x3cee6fe8bcc338eeU, 0xbc233843b875549eU,
  0x3d4a919cbc4c7325U, 0xbd3def5f3c9956e9U, 0x3e13681cbd8d5294U, 0x3d3ab4583d81f609U,
  0xbdeb92df3d8ce6beU, 0xbda62168bdee481dU, 0xbd6b9a55bdb5bc62U, 0xbc8b24f6baa128ffU,
  0x3dc4edfa3ce80c5fU, 0x3e10a1173dd2fe1fU, 0xbd3457f23d821051U, 0xbd73816abc90f2daU,
  0xbd9f6e55bd9abe9aU, 0xbcc07bfb3ad27159U, 0xbd300733bc192f5dU, 0xbd82328b3dbb489bU,
  0xbcb819acbdb4e25aU, 0xbdf69f69bc2efedbU, 0xbcab0a91bccaf021U, 0xbe0401f3be0ebe11U,
  0x3d523cc8bda00adeU, 0x3cdb251a3d02fe49U, 0x3d8639293d30e79aU, 0x3dc8aaabbbc8ee70U,
  0x3ce90d483e0926a8U, 0xbd1df2dabc36b28cU, 0x3d941f41bc8711b4U, 0x3d9909083b836eb4U,
  0x3d1f33743d8e7028U, 0xbd9d7016bc4144daU, 0xbce7fd21be2394d1U, 0x3d6dbafabdd02ccfU,
  0xbcf89e763c904aa1U, 0x3d626f403d82b03fU, 0xbcd21cff3d1ea312U, 0x3cc0ee013d1a7a98U,
  0xbd466a973d279404U, 0xbc1238243b22c77aU, 0x3de8fcbfbd8e9ab1U, 0x3bb609d03d6de95bU,
  0x3d4aabc23d7b9ddeU, 0x3d487a64bc9d4a4aU, 0xbca2200f3da7482bU, 0xbe363fc0bc93ceebU,
  0xbe132901be2ae98aU, 0x3d1e9ae63d9973b7U, 0x3d2c31ccbbdade43U, 0xbbf6a5dabba874daU,
  0xbc2c381c3d047fc1U, 0x3deb2a333dbb31ceU, 0xbdaaae993d6b602cU, 0xbcc49948bb8b5ee5U,
  0x3d83e0e3bd8946b8U, 0x3adf76f53d857d28U, 0xbcd8d2d03d4efb0eU, 0xbe063ef4bd675ac9U,
  0xbe301e3abd36d6a1U, 0xbe66279abe4e7e25U, 0xbd9389d3be050f89U, 0x3b8d077abd0da94eU,
  0xbd3b5bfb3d8dcb26U, 0xbd32fdc8bcb31dbaU, 0x3d7d9f7b3d232529U, 0xbce1148fbd90e445U,
  0x3df611c13dc9def5U, 0xbcfa6ca4bd15412bU, 0x3db9b722bc47cd5fU, 0x3d775f633d95ebd9U,
  0xbd07754e3d88ac7bU, 0xbd84c6ddbd0f3ba6U, 0xbe165644be4645b6U, 0xbe45e029be82cfb1U,
  0xbd770d0fbe4f3c2aU, 0x3be509083a0fa082U, 0x3d280440bd9d89acU, 0xbcf4f5bfbde7ebd8U,
  0xbd049c6a3c6b373eU, 0x3d421e03bd87acb9U, 0x3d038c193dedea2eU, 0xbdd6d7df3cb25f3bU,
  0x3e07c05b3d7cb637U, 0x3d7bd42c3c861538U, 0x3cf1c9ec3d1511f7U, 0xbe053efe3daa39f5U,
  0xbe3e266bbe1e4741U, 0xbe72afe5be62becbU, 0xbdadf5dcbe299e11U, 0xbd55c4efbe170729U,
  0x3cc3b6773d525219U, 0x3d18c5313dceec9eU, 0xbcc92f10bdecfd1eU, 0xbc07d946bd28746fU,
  0x3d884cf83d2cb70bU, 0xbe0142c5bd40ae41U, 0x3e119bb53e618d0eU, 0x3db799ebbc0f5d80U,
  0x3d85efe438ad4efcU, 0xbdcd839d3bf3d535U, 0xbdda6551bd516221U, 0xbd8ebd5abe6c962aU,
  0xbd538041bd0f8ec4U, 0xbe274fa0be3f0772U, 0x3decd087bbc24addU, 0x3c12b3ff3d857a60U,
  0x3d89429f3d4549caU, 0x3dcf0e9b3d524335U, 0x3d830f2d3dc9fa61U, 0xbce719c5bdbb6aacU,
  0x3e06da763e323cdbU, 0x3aeea4793da7909cU, 0xbc7ff4353d99abb5U, 0xbc2cd1a13d7aba02U,
  0xbd827ad73be7fd0aU, 0x3cf567eabcf69f44U, 0xbc10ef7d3c8e7772U, 0xbdfd25d7bc582890U,
  0x3daacf833d9110b9U, 0x3a026d8b3e3bd5b7U, 0xbdbfb4f7bca682d3U, 0x3c02c766bda1d2b7U,
  0x3d4b86563d28ea37U, 0x3e0107f33d989c4fU, 0x3db353743e111b7fU, 0x3b92f2d93ba5ed0cU,
  0xbce0d60ebce0e4aaU, 0x3c64b1f43d35f955U, 0xbdf8494d3e04735aU, 0x3d53dd00be2967d4U,
  0x3d64718a3e5fd7beU, 0xbcc8f276bb625998U, 0x3dfc0673bd33ea2cU, 0xbe349b13bca7529dU,
  0xbdb4c5fcbd881fcdU, 0x3dcd05b4bc8d5d3bU, 0x3d53efc73e11b181U, 0x3df015a83e06b75eU,
  0x3e3a677f3dd8a7aaU, 0x3d8914173d9ad43aU, 0xbbcb46f43d32c3faU, 0x3dab386c3d11002dU,
  0xbe0d5a633c11b87bU, 0xbd5a5acabe028bd2U, 0x3dba824d3d8ce9d0U, 0xbc99a8b33c192ba1U,
  0xbc61d09fbbafa3ebU, 0x3d94a6ef3c303409U, 0x3c2f4b2fbbbdc179U, 0x3dc550143c83d7daU,
  0x3e034d1e3e3fa61bU, 0x3d8dd51f3ca09d44U, 0x3dd971643e5d7ee0U, 0xbbeb1d863d03a9ffU,
  0x3d2ec2ba3c85c5ecU, 0xbc9a3b243d611fb5U, 0xbd635d90bceebdeeU, 0xbbac08debd182fe9U,
  0xbcebb29d3c055c44U, 0x3bb3debebd8ea543U, 0x3d81ac143cc7bc33U, 0x3e0156d53df08b33U,
  0x3d81627b3dde6f5bU, 0x3ceb14c93e0e0462U, 0xbd2dd982bc2df513U, 0xbd00ed6e3c9cc5deU,
  0x3dffc8063cf3b25dU, 0xbda00f2c3d68e8c3U, 0xbba25b17bd674cb5U, 0xbd700ea7bd8de9adU,
  0xbe1c5fb5bd6af7c7U, 0xbc6da80ebd399544U, 0x3d6ca3e7bd0ed52fU, 0xbbeb5b86bdc554e7U,
  0x3e07dd8f3cf33f09U, 0x3d17feb33d76a0f5U, 0x3da3b5863dd3da62U, 0xbd90613abcacb826U,
  0x3d462c77bd961a9eU, 0xbd1f163ebd687dc0U, 0xbaca5c143d59547aU, 0x3d7021e63d942e4dU,
  0x3d5f1b8cbd24ec3fU, 0xbe4b4cd1bde2ed84U, 0x3d1d8efcbde798edU, 0x396b9a6a3c3289b6U,
  0x3d5f643dbd39d426U, 0x3db4344b3c8483a8U, 0x3e0f6c603d5a719bU, 0x3d94db4e3e080a95U,
  0xbd9f7914bd47ec72U, 0xbe31832bbd5887a6U, 0x3b25e0dbbdd64983U, 0xbd1bcd4b3d8c5497U,
  0x3e71168fbd5edc56U, 0x3d9e86bf3e191cb9U, 0x3d517757bd4eded3U, 0xbd24dcfebd3cadfcU,
  0x3dfbd1003c8e69d5U, 0x3cadc0ae3db1972cU, 0x3e163c563c992fbfU, 0x3c4ea26e3dcdd17cU,
  0x3cf5a2e03d98af12U, 0xbde61c503cbd00d0U, 0xbe1985d9be1a7c46U, 0xbe327107be077be6U,
  0x3de3d5fabd4d9d63U, 0xbe14b4cebd558048U, 0x3e35b6d8be160f78U, 0x3b4ad4cf3dea5482U,
  0x3da36db83d8ba45aU, 0xbd42f052bccc8e69U, 0xbcc590863d8eb876U, 0x3d8ff1b13df50480U,
  0x3e76f9263e377a54U, 0x3d78843d3e478951U, 0xbd3fd1a03daa408dU, 0xbd96dafebccd15daU,
  0xbe240bf3be1c095dU, 0xbd669882bdc36669U, 0xbcc9f392bd794880U, 0xbdcdd4b3bd3907caU,
  0x3e807428bdad9afaU, 0xbd69ac673dd3f1dcU, 0x3d06b721bb0aa0a0U, 0x3cddb8973e1c45d5U,
  0xbe19a8e93b9730d4U, 0x3daa38e3bd1df145U, 0x3e76358f3e07f281U, 0x3c2bd3533e21a9a1U,
  0xbdce40f2bc02d852U, 0xbdf499dcbe0c1d47U, 0xbcc5b6fabde550baU, 0xbe135bac3bd7b2e9U,
  0xbdb1d0c5bd0a5abaU, 0xbdb713b33c968eaeU, 0x3e0a6f4e3d0fcf73U, 0x3c85c97c3c06c30bU,
  0x3d449228bd772899U, 0x3d8c79af3d85a02aU, 0xbd87d6e1be1e1521U, 0x3e304f92bc8d7bc1U,
  0x3e1866803e5bedd3U, 0xbdd155333d2a170dU, 0xbddf98dbbe22e39dU, 0xbe1e85a4be69686bU,
  0xbca5a730be0e1837U, 0xbd005e69bc2e25ccU, 0xbd92302fbd8ef77eU, 0xbd0448133da318f0U,
  0x3d07db853db8b1ffU, 0x3d7df37cbd14172aU, 0x3d20ff6a3d9f4f65U, 0x3e51ce153ca83209U,
  0xbcaea563bd62e8f4U, 0x3d8795fc3d12a992U, 0x3d1fa38d3dd463e5U, 0xbd4e70903d1ba705U,
  0xbd9ae83bbe2bcb70U, 0xbdad0fdcbe2abd4aU, 0xbdd965d9bdb9171cU, 0x3e0f7a8bbcaff80eU,
  0x3d477fa73d90c90fU, 0x3d9614bf3de7a5e9U, 0x3e0fe40d3e84b680U, 0xbd0c6b123dd090d1U,
  0x3d7efeac3d28b918U, 0x3de40794bd9e00faU, 0x3d7311a83e12df18U, 0x3dfb17643e0fd73bU,
  0x3cf8240d3e1cf7c1U, 0x3ddc47673d5c1bd4U, 0xbe3c61763cdafa46U, 0xbd188110bd953df5U,
  0x3d515cfcbd878231U, 0x3e658be23d654f3dU, 0x3e31969c3dd60a2eU, 0x3d85c6843c2de8abU,
  0x3db02d593e176d4bU, 0xbc754ab0bd22a793U, 0xbcab26623d150e16U, 0xbe116c8c3d54d080U,
  0x3cd56679bd1de949U, 0x3d25720ebc3bbeceU, 0x3d6dae513e1c9210U, 0x3d94337c3d496cd7U,
  0xbd4e179abc63672eU, 0xbd683e9fbd532b80U, 0x3da6fc913d4a0b5cU, 0x3dccc3f03d2df565U,
  0xbd58d66b3ca32829U, 0x3e666c503d608023U, 0x3e0cc05e3e2d474eU, 0xbd682cd53d5901cbU,
  0xbc4f20e8bd960f88U, 0xbe50dab33c9fdceaU, 0xbca22c6cbcd31ba9U, 0xbce6c3c43c837d5bU,
  0x3ce7200e3d89d351U, 0x3d4d819b3dbd4948U, 0xbd7fd8df3cf2176eU, 0x3d04b11a3d822da3U,
  0xbd134644bdc112baU, 0xbd11e9683e079bacU, 0xbde8deb8be27b1e9U, 0x3dfd60b0bd62025fU,
  0x3e005c4f3e1c50b8U, 0x3d6e54463b59d262U, 0x3d5571ca3cdd3cd8U, 0x3e15fd4a3d1445cdU,
  0x3cc264273dba230dU, 0xbc8bc97d3cb24380U, 0x3c2298e7bdbb586bU, 0xbbcbc8d03d914a56U,
  0x3bc2cc5cbd4e61dcU, 0xbd5e40de3d1cc3beU, 0xbd862eb0bd8d8519U, 0xbde6994bbe0441c6U,
  0x3dc303cb3d502368U, 0x3ba385b73e26a106U, 0x3daffe0a3df3d173U, 0xbc2aab003a310541U,
  0x3c6238e0bd0c9a8fU, 0xbd61a1a83d973153U, 0x3df8ad163e3a4018U, 0xba4e44c33db3f82fU,
  0xbcd8b7a1bd2d2167U, 0xbd163719bdfc4d6dU, 0x3d3b977fbdf28b0bU, 0x3d0755bcbcacf6d0U,
  0xbd8add3cbbe52784U, 0x3e4d7d6dbd6b8c18U, 0x3df87bd23e3167b8U, 0x3e2320bd3e391ca8U,
  0xbc8c8c4dbd2c283aU, 0xbd5ffdfc3d829a95U, 0x3c19c958bd80f3a4U, 0x3d1775f03c4de3b0U,
  0x3db73aa23de7cde3U, 0x3ddde4643d98faa9U, 0x3a80fb3e3d80c473U, 0xbb6d43b73cf22a50U,
  0x3dd2c26a3ce3c606U, 0x3d57590e3dbc58ceU, 0xbca6c8533d7c4861U, 0x3d40ebb53d21bfecU,
  0x3da4c7923dd5803fU, 0x3c69864b3d9b58ebU, 0xbba590c03c8ee8a0U, 0x3d5fb0aa3d5a6642U,
  0x3d9493ddbbbc2480U, 0xbc1408203d6c21beU, 0xbba161e0bc446768U, 0x3c0cbcd03d894791U,
  0xbb41ce80bd9b9da8U, 0xbd92aab73d597e96U, 0xbae67bc0bcbdc0c2U, 0xbcd637d8bd627c3aU,
  0xbd04797bbd391f1aU, 0xbcb24f683c0e23a8U, 0xbcaaf550bd98c596U, 0xbc46afb83d0f85bcU,
  0xbd23f6493d7867feU, 0x3cc956dcbc7a0d10U, 0x3d1f2828bc8d177cU, 0x3d91bc85bd4af418U,
  0x3cf16694bc8a66d0U, 0x3d25b148bd6d9132U, 0x3d0c62d93c421d16U, 0x3d345ba03bc2d32dU,
  0x3ca0de523d63f133U, 0x3df18bad3d645465U, 0x3dae32353db3bf91U, 0x3dae40d23cc98269U,
  0x3c7c07f13d817873U, 0xbd2ebcfd3c2bbbccU, 0x3c0b2590bd41be6dU, 0x3d768a6a3d705f3aU,
  0xbd9d6d70bc6dbdd0U, 0xbd9e8e803c8ea401U, 0xbd711dd5bc6bc3c0U, 0x3ae370ef3d19fadbU,
  0xbd114db2bd9584a1U, 0x3baf43603dab5f52U, 0x3e597a783e0130f7U, 0x3e584ce83da6aaa3U,
  0x3e1d45343e35f3dcU, 0x3dce15d93e0ed35fU, 0x3e0140833e586e58U, 0x3cb295d03e1e5e4fU,
  0x3cce9e923d1939f5U, 0xbd8eee323d8484a3U, 0xbc6182c8bd934637U, 0x3ba6a75bbc7c9075U,
  0x3cdae14f3bdec554U, 0xbd9b636bbc453f0bU, 0xbc2fb4fe3cd7b3faU, 0xbdeb41c2bdcb844bU,
  0xbb45e1cdbe48866aU, 0xbd6045aabd306e48U, 0x3d8c02733d83f721U, 0x3ca6ed063e24dc57U,
  0x3de8957b3d14361dU, 0x3e7df9873e0d6060U, 0x3d8ed0b13db09e97U, 0x3cb399e4bd87db7cU,
  0xbd04d12abda35451U, 0x3ca0d190bc91f185U, 0xbc45adacbd3e75efU, 0xbdf16b9fbdea26ccU,
  0xbd75ec71bd575903U, 0xbdd0e4d3be4546daU, 0xbdb89727be243794U, 0x3da18a93bc8c8d57U,
  0x3d81c61ebd4b7dcaU, 0x3d8ade2a3d94bb50U, 0x3dfce2aa3d47c528U, 0x3dbaef833e1cdcf4U,
  0x3cd976ef3e483b41U, 0xbd9620033cc774cfU, 0x3d015f263da2703fU, 0xbc2379cb3e04da3aU,
  0xbd01d555bda707a0U, 0xbe323555be3e7363U, 0xbd49b52fbddea02eU, 0xbe0844a1be08af3bU,
  0xbd2ab6c0bdf5b0e1U, 0x3d17146e3d259d21U, 0x3e03d71f3c6dcf0eU, 0x3d1628fc3df1be04U,
  0x3e59c4b93cff7fedU, 0x3dc975433dac16ebU, 0x3d3440fa3d482398U, 0xbcef8b4fbc1fad2bU,
  0x3d8382d1bd419e83U, 0xbdcd47f53dba7244U, 0xbddf53d9be03b940U, 0xbd39158fbd9ec0cbU,
  0xbc90466ebd965ec1U, 0xbe09f330bdd712e7U, 0xbdd533e8bd753625U, 0xbb37f58a3d0b1c32U,
  0xbe0f3365bc93cf0aU, 0x3d289df9bd4e3857U, 0x3e06f88f3d91e090U, 0x3d69ba903d70296cU,
  0x3cb4426d3d350460U, 0xbb802c75bd13d540U, 0xbd10f59b3d7ecab6U, 0xbd1e56423d9b2430U,
  0xbc69eda3bdd39885U, 0xbe3980d6bd820e14U, 0xbde30f09bd842abaU, 0xbdbb115cbd4d50a9U,
  0x3da8228ebe051c9fU, 0xbd2672073b11c24bU, 0xbe00ec0ebddd04b0U, 0x3c9c4fe2bdb344cbU,
  0x3ddb7dd43d801154U, 0x3daa390d3e2ec158U, 0x3d0e4db33e440de9U, 0x3d9a5d793c26afebU,
  0x3bd0136bbd130a34U, 0xbda8fb23bb9e5158U, 0xbd8a0222bd1ac826U, 0xbe0d9a6abe0a4ef7U,
  0xbd8f7c69bd3a12d0U, 0xbd4e16afbddafc58U, 0x3dd937353d768403U, 0xbd1279623d902474U,
  0xbdda3aef3bdad4b6U, 0x3ccfffbcbcb601d6U, 0x3e04c7c13d573270U, 0x3db6609d3e10e8ffU,
  0x3e5fd0ac3e8718cfU, 0x3c6874563c4db786U, 0x3d6018c93d0113dcU, 0xbd1027ac3b5d1291U,
  0xbd74cb41bd686b7fU, 0xbcc25776be0252b4U, 0xbd22ab34bdd2b6b8U, 0xbd486905be240af7U,
  0x3e102ddc3cef21a0U, 0x3ce130c93e07871aU, 0xbdce909ebe16bd53U, 0xbe2fed34be1e64a0U,
  0x3dc922dbbe02e4f4U, 0x3c68769c3e00aba4U, 0x3e3552833e82ab67U, 0x3d7caa4a3da91397U,
  0xbcbfe6e63daeeb24U, 0x3c8f6a803dd8e4a9U, 0xbd86cdf1bdbe63a7U, 0x3cde5443bd21d7a2U,
  0xbd3a21fcbc82263dU, 0xbb5872dfbddc3ed5U, 0x3e38959b3d82438dU, 0xbd67999f3dd2ca33U,
  0xbe205840be2811f1U, 0xbbe0cb24be3fbe2eU, 0x3cbd9b6b3cee4e00U, 0x3d82a6033d887257U,
  0x3d94c36f3eafe7efU, 0xbb43fdb63e01d109U, 0x3cb4d8e43db23df1U, 0xbcd1b0413dc56a8eU,
  0xbdc504d1bdb3fab0U, 0xbdb14486bd922a0dU, 0xbdc7ae5fbd77dbc7U, 0xbd9d87e9be2f790aU,
  0x3d4309743bbb5888U, 0xbe00fe33bc2df8b7U, 0xbdeee07cbd913096U, 0xbdaf96d9bdca83e3U,
  0xbc725d383cf62450U, 0x3d699ef43cbfc215U, 0x3e0193a53e48d83cU, 0x3d0d042ebbb2e590U,
  0xbd7ca0dd3d0a71a0U, 0xbd2246523ccfc11cU, 0xbc926d6bbd39b51dU, 0xbdd37a4fbdc6e815U,
  0xbe08827abda878feU, 0x3d9a9e04bdaa9886U, 0xbcc1752a3e1f18b4U, 0xbd7888203d64809dU,
  0xbd9d48b1bdfb541eU, 0xbdadc593be1be54dU, 0x3d8d4d0bbc53138fU, 0x3c3284933d9a3116U,
  0x3dad9f243e1fb966U, 0xbd624c403c23bab8U, 0xbd7f91673b9427abU, 0x3d0940373e0cdc94U,
  0xbd5ecd2abd5adb22U, 0xbd808bc13c910441U, 0x3caed9bebc8b5cdeU, 0x3de27cd73dc89921U,
  0x3d1d167f3e03960eU, 0x3d92cd813dcd4fe8U, 0xbda2e6d4bd9f8601U, 0xbd69ef06be12f220U,
  0x3c17bf5cbd1648ebU, 0x3d39049f3c098d8bU, 0x3dc2953e3de0ae6cU, 0x3c14a9613cf773c5U,
  0xbce7d188bc7e8ad0U, 0x3b35e3b63d864a40U, 0xbc66f6ddbdd5e7f0U, 0xbd401cbcbe1d20a6U,
  0x3b882870bdfc96c3U, 0x3cd1cc7d3da2948dU, 0x3c62a89b3e13c3ffU, 0x3db49b33bca1f3b0U,
  0xbdd3e252bde4ecf3U, 0xbd2266fdbd74f6e1U, 0x3d70cc35bdbb7a43U, 0x3c066d083d82f707U,
  0x3dd67bca3e05a14bU, 0xbd1a5f9e3c32e9e0U, 0xbcb5e7f8bd1512b8U, 0x3d26a896bd8d737dU,
  0xbe36b1d03d4593b9U, 0xbe2e56e1be1671f9U, 0xbd06de93be00f279U, 0x3d9940d4bd57e4d1U,
  0xbcf97a013d8d8385U, 0x3c0ce5dc3d9e73d7U, 0xbe4682d8be5d7633U, 0xbd0182fabcb33b85U,
  0xbdd0900bbddf6946U, 0xbd7c09083cd0adc1U, 0x3d1664303e0256caU, 0x3de213c83db8b4c9U,
  0xbd14bbfcbcc60c4fU, 0xbdd30df0bd8994c3U, 0xbe2bbf13bd2b0b27U, 0x3bc56a7dbe228ea0U,
  0x3d7827a03d9b302aU, 0x3db94b803dbf56c6U, 0x3db26ed13ca902c3U, 0xbc2b3d9e3d7baec6U,
  0xbd8c52bfbdcaa951U, 0xbd8ded23bdbbabc8U, 0xbdad644dbb6da4c3U, 0x3d2c2ae0bde9806cU,
  0x3dd82b19bbadb423U, 0xbd035d5a3e1355c4U, 0x3d72b6a63d3ba92aU, 0xbc2bcd363d3a4ab2U,
  0xbcf23146bc1f205eU, 0xbd0370203dbd38a2U, 0x3e1d65cf3d8e92e6U, 0x3d9a7d273df624caU,
  0xbc601940bcae7e28U, 0xbd45622cbc1d3c1cU, 0xbdfb07dcbda3957cU, 0x3d734b5dbdc96d50U,
  0xbdd7e2243caa465eU, 0xbd999ff83ccbe036U, 0x3dd2bf18bc0539cdU, 0x3d09b8243da1f26eU,
  0x3ced3223bd58add3U, 0xbe1c4e96bd141a0cU, 0xbd28221e3cb304ccU, 0xbd89f3e1bd3822eeU,
  0x3da51b52bc89a9e3U, 0xbdfbfcc9bc61c7d1U, 0xbda5c5a0bdda385cU, 0xbd2b29213dcea0caU,
  0xbd7e53dbbdd1334bU, 0xbdd159b8bdd29edeU, 0xbd957b27bdd85ff1U, 0xbd3833f6bd359a51U,
  0x3d1b7a8d3dd58ed2U, 0x3b6f6e35ba1bc631U, 0x3bcdc4b3bd89a5f2U, 0xbdf3742b3d455dc0U,
  0xbce28cbabd8f1338U, 0xbb5bd6853d3f8455U, 0xbcd039053cb62f39U, 0xbca51356bc702400U,
  0x3d45f755be006c23U, 0x3c2c6ce03cdd6fa9U, 0x3d1254a73d5c3831U, 0xbda2ee6ebd3f2d53U,
  0x3cfa4d2cbc06c881U, 0xbde5e744bdb7ce2cU, 0xbc965f553d5274d3U, 0x3ad7367a3cee4389U,
  0xbcfa592fbcd8ef68U, 0xbe4c87db3bfcd0f9U, 0xbc1ae962be150817U, 0xbd87695ebd6dbee5U,
  0xbd8172393de1146eU, 0x3d828e9abd598e33U, 0x3dd5b0553ca6a865U, 0x3e17073f3d1d6a45U,
  0xbd956dc53d01f5deU, 0xbdbd087bbe304c65U, 0x3cd0ae153cac1debU, 0x3d08c595bce81d66U,
  0xbaf9784b3d8d0302U, 0xbc8fa25ebd6c6c1bU, 0x3d6379cbbd874e9bU, 0xbe3aacf9bd0e0274U,
  0x3d6a1ea5bc7f82f5U, 0x3ba61ebfbd2947d8U, 0x3c1fd1a3bbefd263U, 0x3e20ace53e2b312cU,
  0x3e26d46b3e269b96U, 0xbc1f75b73d9627adU, 0xbdd73472bd8f2579U, 0x3ca2e218bdec798fU,
  0xbca2d9dc3d96d635U, 0xbd7a4c153d3ae669U, 0x3dd57b503c4435ecU, 0x3c9c86acbc2e414fU,
  0xbd8b02423d925125U, 0xbe126fcbbddaab6fU, 0xbc9e3d533d012fc5U, 0x3d316de8bbe1e6fbU,
  0x3d553b493d88ce09U, 0x3e0151293d334066U, 0x3d8a78e23e070063U, 0xbd8260233a44549bU,
  0xbd50cbc4be165347U, 0xbd0571013d5f2d9dU, 0x3db5a08e3c420ed6U, 0xbd9bbdd2bcd87cd6U,
  0xbd111fbfbd3938e5U, 0xbd03549dbd14d63eU, 0x3c89d3903caa02acU, 0xbd82332dbc8aaa22U,
  0x3ba54a183dd64e92U, 0x3e027c95bc1c4bd0U, 0x3bdad65d3de414c1U, 0xbb364ea73d455898U,
  0xbe0ea4c6be14612eU, 0xbe001daabdf0d264U, 0x3de2cc433d509b47U, 0x3dbc328d3dca5f63U,
  0xbd55aaeb3e019276U, 0xbdb83a0bbd2eea62U, 0x3dd71f20bd72f573U, 0x3d2738a6bd8c8b8dU,
  0x3cc0f660bd718aeeU, 0xbcd3b97abd1ed1d3U, 0xbda386c1bd30553cU, 0xbce22eae3d8245a8U,
  0x3d6ac77a3d81fc20U, 0xbd7cc713bdf78d02U, 0xbdaada9cbe21e852U, 0x3c50bf2c3ca6c619U,
  0xbd6a4730bd5c89f3U, 0x3c98f6013ceb1cc1U, 0xbd2f4cb6bcfea5aaU, 0x3c09ce18bd8d99c1U,
  0xbd39a8e6bd786669U, 0x3cdab998bc988414U, 0x3b979e603d4c634eU, 0x3d5fc216bd33d291U,
  0xbd41d0013cd3cae4U, 0xbc44e3d1bd0f8766U, 0xbd6a0a8c3d15ffecU, 0x3c92adfebdcffca5U,
  0xbd40bf66be0ec38fU, 0xbdfc85a0bd03770fU, 0x3d2429a13cd4d4f5U, 0xbcda3672bca3ad79U,
  0x3d1f9a083d005428U, 0x3d25be52bb209eb3U, 0x3d00c668bd872833U, 0x3ceafcdcbd851170U,
  0x3d0d5ad03d0125e2U, 0x3d0229933cd6f62cU, 0x3e25dbac3e2a4f15U, 0x3d487d3f3e232b4eU,
  0x3c85f0bc3ddfe9a0U, 0xbd704626bd7532dbU, 0xbd6eaa93bd3418c3U, 0xbd361dcd3ca7fc73U,
  0xbd9dccad39c9a4ccU, 0x3db4a6eb3c692355U, 0x3d9db18cbd11294aU, 0x3b5dc53f3d51c355U,
  0xbcc538b13d98336bU, 0x3d5e7e56bce06f42U, 0x3d820091bd12e42eU, 0xbda5ee473d4ab45eU,
  0x3da3f07dbcdc870eU, 0x3ddb7180bba729b7U, 0x3e217eadbc5c584eU, 0x3d696b723e069a54U,
  0x3dbd2f113dbef313U, 0xbb92abcc3d858e1bU, 0x3cb97aaa3dcbf69bU, 0xbcd2e0e13ceb420dU,
  0xbc87a5493c184d35U, 0x3b5692c0bd796977U, 0xbc65cb803d5730c6U, 0xbd1ef543bd54e4e6U,
  0xbd2df042bd228aa5U, 0x3d9461553d54c8c2U, 0xbd23e3533beeb640U, 0x3d82d6f93bc59930U,
  0x3d5b8c523d99aefbU, 0x3c6282d83c12b690U, 0xbbb677fdbd9060b9U, 0xbd614d03bd3d7041U,
  0x3d91c9c93d77d972U, 0x3c04a6883d953203U, 0x3cb22028bcbf8a24U, 0xbc8fc6bc3d3a925aU,
  0x3d6ff72e3d8ad18dU, 0x3bece1203d5f14b6U, 0x3d89edabbd658cdaU, 0xbd2815993b6423e0U,
  0x3d3d74e63d8de71fU, 0xbc5dadc03d4fe846U, 0x3c2f97503cf15c1cU, 0xbe1657cdbd70a7cbU,
  0xbce332cebd830627U, 0xbd84285bbdc65689U, 0xbe06a209be1cf063U, 0xbe191792be43c50fU,
  0xbe029cdcbe0082d9U, 0xbda0fd963d6e7969U, 0xbd30f205bb7e7f00U, 0xbd16899b3b928210U,
  0xbd7417a63d58512aU, 0xbd993230bd8ced0fU, 0xbd276d8b3cb45fdfU, 0xbcc0ad0d3d208868U,
  0xbda96f06bc28dc16U, 0xbd6b08cbbec2b50fU, 0xbd914c7bbdc48389U, 0xbd38fe5bbe03d2d7U,
  0xbd1ac258bc1d4844U, 0xbdef9415bce4b23bU, 0xbe52bf90bdb94194U, 0xbd1f4b06bdaf825bU,
  0xbccbc3b23cc9af3dU, 0x3c7941503c73db98U, 0x3cd75990bd451973U, 0xbd65f82e3d85e57dU,
  0xbe4ba207bd2e970cU, 0xbd979e0dbd7cbf12U, 0xbd1403aebe810780U, 0x3d8668fabd0180dfU,
  0x3e03d1963d228c52U, 0x3dd3e0233e2d8cf7U, 0x3e418ea03d931239U, 0x3c82ed5d3e396a8aU,
  0xbc4d1d8f3dbf62aaU, 0xbe794c8fbe825ae9U, 0xbcf3008dbe05f529U, 0xbc558fe0bd251704U,
  0x3d022228bd96b43dU, 0xbdab5a2cbc1315d9U, 0xbcd14a27bd71bfebU, 0xbd8744f2bcda27aaU,
  0xbe840c6abe830458U, 0x3c9787e2be117457U, 0x3e3ab36ebc097adeU, 0x3c89516abd6ec117U,
  0x3d3657353d0a7726U, 0x3d8093cc3df8740cU, 0x3d0a95c03de9b663U, 0xbea64f5f3c3320a6U,
  0xbdd179bcbeaa8b9cU, 0xbd8f49b4bc6cf015U, 0x3d6ea9cebda2b50eU, 0xbdb31c66bd8b7479U,
  0xbd9fff32bd96185aU, 0xbe0498bfbe375481U, 0xbe88394bbe965ab7U, 0xbdbf492fbe2e8f50U,
  0x3d3e8a943b952860U, 0x3b584f7f3d789630U, 0xbd7de88c3da4c1ceU, 0x3dfa5e413db6aa0aU,
  0x3e3c0a723e392a2fU, 0x3dd384113e609ac1U, 0xbe4594163e239440U, 0x3d837e683cb735bfU,
  0x3d968857bd5c9635U, 0x3c7cd38d3d3a122cU, 0xbe15bdd4be33c0bfU, 0xbe8d08adbe2b0e3fU,
  0xbdbd2562bea9ebdaU, 0xbdc80608bd1a7642U, 0x3d80f8bc3daa3282U, 0xbd788473bcaa2069U,
  0x3e045d263bed39e2U, 0x3d5a263c3ca00dfcU, 0xbc8eb0c43d8cb5b1U, 0x3c6e01253e51bc16U,
  0xbe805fec3dbe6d31U, 0xbdc437c8bd8ddc13U, 0x3c3d224fbd3705beU, 0x3d74af3b3d40cc20U,
  0xbdfacd21be759619U, 0xbe13a22bbd4404bfU, 0x3bb22722bdc506b6U, 0xbd5451433bfa2276U,
  0xbe22c7e7bd5047a6U, 0xbc1cd820bd944dd2U, 0x3e003a8b3d01d41dU, 0x3e1135093da9460eU,
  0xbd825b2e3cd98598U, 0x3e1f3f173d92133dU, 0xbde8c1d23e22d235U, 0xbc93b7ebbc2d13a8U,
  0x3cd39397be15df0bU, 0xbc26a8f2be2a3c0fU, 0xbd87f9f3be1f9065U, 0x3df5e2d13daffa83U,
  0x3c5c7c6cbe3a897dU, 0x3c960da43da19558U, 0xbe2ffc4abe347883U, 0xbe1de3d4be059683U,
  0x3d956fc3bd8cfbe8U, 0x3cf44a593dc29798U, 0x3d4aa3c33dc686e9U, 0x3cace0223e12e174U,
  0xbddbde1abdc40a3eU, 0xb9c4a050bd153555U, 0xbd9edce1bd0436e5U, 0xbc6301ac3d83380cU,
  0x3b2146cabe14637cU, 0xbc89a6913e28ec2eU, 0xbe030dd9be0a1e9eU, 0xbcae007abd8531bcU,
  0xbe870b9bbe3327f0U, 0xbe1a70c7be5530d4U, 0x3d94e1ad3d30434aU, 0x3e28a4773e24440eU,
  0xbdbe3620bd3d6777U, 0x3ce469a03dd406dbU, 0xbd4a98eabe54a0d2U, 0x3d0bfbd4be3337c4U,
  0x3a37ef97bdd6a27fU, 0xbe0c16993d9fc638U, 0xbddc03e4bdbb19fcU, 0xbe541080be56e3cbU,
  0xbe1477c9be95ef3aU, 0xbe824e19be3decfeU, 0xbe3891a1be85211bU, 0xbce52d87bd731910U,
  0x3e189e9e3e215e97U, 0x3e2a36fe3e23ead4U, 0xbdcd81b2bd7d993bU, 0x3d97d2373e355185U,
  0xbd92515dbd606d22U, 0x3d42ce9abe02421eU, 0xbd14c03cbd2ca63cU, 0xbe3d9728bcc5b1b0U,
  0xbe1f56edbe632d43U, 0xbe600a83be32d931U, 0xbe226b60be2ead27U, 0xbdcb2b8cbd46a684U,
  0xbd52f3c5bdd40b42U, 0x3e7a92653e2b7ec6U, 0x3e7576ec3dd9971cU, 0xbcc2302c3e557339U,
  0xbe6eefe2be80e2e7U, 0xbeb3a52b3c1e488cU, 0xbe23ded4be13a734U, 0xbd26f3d93a41ddf7U,
  0xbd3aec0fbd7c793bU, 0xbdfa39a0bdeb2bc9U, 0x3d803098bce6394aU, 0x3d05661f3dd4491bU,
  0x3d1008243d53025fU, 0x3d998a933e09cbeaU, 0x3e11d7f5bc4ac0c0U, 0x3e4a826d3e35af5bU,
  0x3d903e7d3dd1f602U, 0xbdb1e7093c385c7eU, 0xbe561c82be24bf92U, 0xbe8aca17be12d8e2U,
  0xbcecf936be59d268U, 0xbcbb82023d2ed9adU, 0xbd6aaf4d3d88980eU, 0xbe5f9d55b99e0a8bU,
  0x3e2ae078bc943bd1U, 0x3d2786f73d5d7468U, 0x3ceb3f7a3cfd6394U, 0x3df395323e27f256U,
  0x3d466e3b3cdf470cU, 0x3dc59bbd3d3e44f5U, 0xbdd4d400bd5088daU, 0xbd7f0c76bd9af2bcU,
  0xbce17d36bdae0371U, 0xbe449ee5be1e375aU, 0xbda3d565bdf4e92eU, 0x3d3d8e2a3b9f4d3dU,
  0x3c713097bc80dd50U, 0xbe0ecd323b92044cU, 0x3e3c32523c770b3bU, 0x3decff8f3e243413U,
  0xbdec398fbdd8cc82U, 0xbdd7b05fbe2b653bU, 0xbdfab6cbbe2903eeU, 0xbe175a44bd83c12aU,
  0xbdb2a163be54404dU, 0x3c2d859b3c4b49bdU, 0x3b81f3a6bcc653a8U, 0xbe18d3bebd33e3e7U,
  0xbc274fc7be2962a8U, 0x3d938ef5bc46caadU, 0xbd2e0f643d01e21eU, 0x3c9825103c68d027U,
  0x3e214d55bd8c0666U, 0xbd921c8b3d1292b5U, 0xbe4cb80cbe1228e0U, 0xbeafc70abebcd01cU,
  0xbdcfb900be8ddaf4U, 0xbe5f703fbe1b92ddU, 0x3ca97d5a3bac2033U, 0x3be9431c3d4bddd1U,
  0xbca2e6d23db33014U, 0x3a8b141abe2b460eU, 0xbdea8cd6be5c730bU, 0x3d460aacbc8e6fb0U,
  0x3d89d17c3d222392U, 0x3e6d89debd7d0f51U, 0x3d4c5a713d4bf313U, 0x3d0c35ae3d4dcd98U,
  0x3cb09c183d53b706U, 0xbe980a3fbe3db271U, 0xbe3efeffbea99325U, 0x3d2e7adcbd980384U,
  0x3d645ae93d906c39U, 0x3de7f0343d616029U, 0xbe4c7c7bbdac33f6U, 0xbdc912b0bdc8c4f8U,
  0xbdece04dbe19e41fU, 0xbd4fd806bd3f3635U, 0xbcda016f3cfea57cU, 0x3e1db32b3d11a261U,
  0x3a84dac63d21f41dU, 0x3d36eba63cc15747U, 0x3dd335a83de1bf7fU, 0x3d1711593d278a9bU,
  0x3c2f05d7bc994583U, 0x3ddf605f3d0aa607U, 0x3d9cc7853dcf32bcU, 0x3d4ff2ab3d8f47b8U,
  0xbe93fa2bbe3baadaU, 0xbe321604be4c04d5U, 0xbd653bdabe802422U, 0xbd218553bdbcada8U,
  0x3df06341bd19ec8bU, 0x3e2402903b85654fU, 0xbd2b71ef3c89b470U, 0x3de75aa53d837256U,
  0x3e6042c43e530a0eU, 0x3e3af3063e2708b8U, 0x3e48e8193e3b13b3U, 0x3dcfba213e3413d0U,
  0x3d467e2e3dd540b9U, 0xbd2d1524bc1e0c90U, 0xbe8b788ebe819c89U, 0xbe1726d4be70c346U,
  0xbc9b202fbe6723e1U, 0xbd1375e9bd299739U, 0x3c50016fbd732ec5U, 0x3dfb0840bdd02bacU,
  0x3e02f2d83d803337U, 0x3e0845233cd3cd59U, 0x3d853aad3dabde2dU, 0xbb3e3a7d3dff9532U,
  0x3e2cb90f3e06993bU, 0x3d9140413df47ebaU, 0xbdd834afbd81d84cU, 0xbe049f70bbf98fd6U,
  0xbe8bbb13bea38f8cU, 0xbe857cc8beb8cd0cU, 0xbe076199be24e666U, 0xbc1a29d2bd03d1e8U,
  0xbd755c1ebcf3f40aU, 0x3e374a49bda9d5aeU, 0xbd9c4870bdabbe0aU, 0x3d7e7d71bcff954eU,
  0x3d584af53a885185U, 0x3e0886813ceb22d0U, 0x3ded078a3d436973U, 0x3cd3dae93ddff4e1U,
  0xbdf244debe2ff611U, 0xbea6f9b5be11e715U, 0xbe762961bea6d6c2U, 0xbe43e18dbe7d794fU,
  0xbe1523d2be33f1c9U, 0xba2cd9633d64c088U, 0xbbf1bb8f3c21c3dcU, 0x3ad564183c3ce0ceU,
  0xbdad40c3bdf5fd39U, 0xbd21a4853b86ed8bU, 0xbd360ece3d84f5e1U, 0x3e24762a3dcda696U,
  0xbb7638633ddf6f68U, 0xbd25021cbcff9896U, 0xbd659c7bbe09cd4bU, 0xbe93e869be32e825U,
  0xbe9f26a8beac4074U, 0xbd5d9c01be882cecU, 0xbdf52533bda5029bU, 0xbc5a6410bda036eeU,
  0x3d9a5983bc1fe212U, 0x3c92a2b93d8c4209U, 0xbda4f49dbdac217cU, 0x3d6f4885bd29f8b5U,
  0x3e02aa563cd3458cU, 0x3d7e921f3dcfa778U, 0x3ca95651bd1e8b8bU, 0x3bb7cf883c8ed10eU,
  0xbe24111bbdc9a7c6U, 0xbe9cdde0bea22c01U, 0xbe9e58fdbeb6c963U, 0xbd8fc244be516fc2U,
  0x3d21aa88bd6c42ebU, 0xbca54ddabcc17318U, 0xbb3aeb20bda1200dU, 0x3d6134603e5a5284U,
  0xbe1dc8aabe4b126eU, 0xbdc704afbe634d99U, 0xbd92ca34bd8f2f90U, 0xbd9e635d3b2031caU,
  0xbdf7de94bce8b166U, 0xbde468b2bde9ead4U, 0xbeb03c5bbe8a879eU, 0xbeb7b2cabeb2c41fU,
  0xbe45f9afbe4e7eb9U, 0xbd360105be7a8cefU, 0x3d5e5acc3bd80fd3U, 0x3d621d92bc666dc9U,
  0x3d27a11abd83baeaU, 0xbbde5ceebd42c9a2U, 0xbd56c146bd869a37U, 0xbdf3495abe089a2bU,
  0xbd31b88f3c2b01dcU, 0xbd959369bdf52983U, 0xbe0895d3be084f46U, 0xbe87b273bdcd377fU,
  0xbe813fc8bed5c17cU, 0xbe0f77e1be121e17U, 0xbe1decfbbdc81a4fU, 0xbe415559be2faacaU,
  0xbda472463d26052bU, 0x3ccf1f60bc4122c0U, 0xbd9915c93d9b8121U, 0x3c166c70bd5c2074U,
  0xbe34c9dfbd2d6db3U, 0xbe8af596be506b1eU, 0xbe9b1275be87c8eeU, 0xbed9c547bef066f3U,
  0xbee6e1acbee2ce27U, 0xbe6e0d29be7b2f0cU, 0xbd8eca2dbe5e42ecU, 0xbd7986a03d04a015U,
  0xbc727c5eba7cb0e3U, 0x3d64dcdebd24cd91U, 0xbcad3458bd578614U, 0xbd3a00d03d9c471bU,
  0xbd88143d3d318f94U, 0xbda3bf99bc974930U, 0x3b809d8abdb5f8b8U, 0xbd888d94bd9096e5U,
  0xbdd6c062be32b053U, 0xbe6ccf88be64a489U, 0xbe3359d1be06b669U, 0xbdc9ab0abdb6f6a4U,
  0xbcb23f0ebc832f02U, 0xbd426d193d7eceaaU, 0xbd080930bd7bbf87U, 0x3c95d3843c8092a8U,
  0x3d06c0e4b9452e4aU, 0x3d9c91c3bd7b9460U, 0xbda029b7b9eed500U, 0x3c33d1503d83f6f9U,
  0xbce134aebbefebd0U, 0xbd39aac73b608392U, 0xbd92e2503d33c11eU, 0xbb932a93be06a5dbU,
  0xbc8c9775bcd9d7a1U, 0xbd40ba353d4b0ab5U, 0x3c8f8d1c3aad9f3cU, 0x3be83700bda194adU,
  0x3cda342c3d8831b1U, 0x3d574d8abce50006U, 0xbd8d9368bcc001dcU, 0x3d193c2e3d513e2aU,
  0x3d97ff77bd0bfd01U, 0xbd8f0944bd19b2f2U, 0x3c91d1dc3d0d122eU, 0x3d7e418ebcf1cf00U,
  0xbd8a75a7bd9e83e4U, 0x3d68196e3c359018U, 0x3d38b675bc96ff65U, 0xbd9d4eee3d81a093U,
  0xbc8a53503c74fbc8U, 0xbd14dbdcbcd13cb4U, 0xbd494acabd8c8441U, 0x3d9d84d3bd18d840U,
  0xbcb6aa3a3d4dad62U, 0x3b492640bcb081f6U, 0x3d380022bd3b449bU, 0x3c31fcd83d9af81bU,
  0x3d7b26da3d7a24a6U, 0x3ad7882cbab53984U, 0x3d10e1a6bd88dd46U, 0xbc70b5fa3d574cabU,
  0x3d537af73ce9b054U, 0xbcb950d2bc0e2d59U, 0x3d2756a5bb6c4c7bU, 0x3d80216f3d806a4fU,
  0x3d99c5a63d01ccffU, 0xbda5fbbb3c7261fcU, 0xbd9456233d270b74U, 0xbd44a814bd2102d2U,
  0xbd8a081dbd3e6c78U, 0x3ca1ff17bc9e44deU, 0x3ca4d7623c00a38bU, 0x3d940919bcd6598aU,
  0x3dceda2bbce5da14U, 0x3df3bc5f3c54e2a6U, 0x3e0a4e393dc0fd73U, 0x3ccc315c3ca3eb35U,
  0x3d18e5813c120660U, 0x3dd21f253e000d40U, 0x3cccc0ad3d9400ecU, 0x3a895e523d206e5cU,
  0xbc856928bd118dd7U, 0x3d2793503bd771b0U, 0x3d4d444abd9a71e7U, 0xbca4c1ecbcb73b2cU,
  0x3da02de0bd8a2a4fU, 0xbd9f02d53ba27a21U, 0xbce83a6bbddb1e2fU, 0xbdc2bcddbe1c4cd5U,
  0xbdc01e0c3d06733bU, 0xbd99bd84bdee6977U, 0xbc5c3200bd947bc9U, 0x3dcf3ef23d38c846U,
  0xbceb1171bd0a044aU, 0x3d59aa593de64210U, 0x3d8d0ba63d9ec0b9U, 0x3d888b973cea95b9U,
  0x3d8c852b3d827fc7U, 0xbc861b45bcb33d26U, 0xbdd7c7ccbdca2fd0U, 0xbd958362bddc57e1U,
  0xbda83e52be717ba1U, 0xbc026189bd42b006U, 0x3c3a4a71bd569becU, 0x3d71cd5a3c9de527U,
  0x3e14d7383d9a9812U, 0x3da1d3ee3c80cad8U, 0x3dbab92cbc5d7fc7U, 0x3e377cfc3e2ab66bU,
  0x3d5dbcf43e566f72U, 0xbc502dbd3d38c768U, 0xbd9b4be33da5d733U, 0xbdbcbe293d6327dcU,
  0xbdaee6fdbe137069U, 0xbd94f523bdf8b843U, 0x3d9bfb1cbd60694dU, 0x3ddc5fb63dad36efU,
  0xbd388ed0bd9a3c90U, 0x3ca13bf5bcdfff82U, 0x3d9dbe35bdaa5b02U, 0xbbdb5d0f3d8d3285U,
  0x3e596cccbcf43130U, 0x3e2033df3e6e661bU, 0x3e936ba63dabb76dU, 0x3c9a592b3d2053d4U,
  0x3c71d7543d2b54a2U, 0xbe399b2b3d86af9cU, 0x3d305c71bcd99b9dU, 0x3d3b3e113da1bcf7U,
  0x3e2864c23e3752ffU, 0x3d62e2633cb90d8cU, 0x3c15144e3d4385d8U, 0x3cb443debd290774U,
  0xbcff044b3d08d024U, 0x3d072ee73cf98464U, 0xbd458ec33d2eab74U, 0x3e408a773e85a419U,
  0x3e35a2dd3e1515aaU, 0x3dc180253d5c3cffU, 0xbd16ed55bd472bfeU, 0xbd95d50e3e1c4959U,
  0x3e1da604bd459a5aU, 0x3df61e513db98ed6U, 0x3d081c413e1452caU, 0x3d72b94c3d7d794dU,
  0xbda698cf3d528a19U, 0xbd4bda7abce644cbU, 0xbd520f223d6568a4U, 0x3d6b7c583dff1fd2U,
  0xbd851ecbbcbb9149U, 0x3d0b77aa3d81c1fcU, 0x3e6ecc943ddb7e62U, 0x3d89c2db3e2b82e9U,
  0x3d4e5e103c5906ccU, 0x3e3d61c43e235f07U, 0x3e11d47f3d2a2b77U, 0x3e2df8473e0f2d96U,
  0x3d6ee6f53b66e5e5U, 0x3e4845c43e0aa951U, 0xbe28a7053cb49e26U, 0x3dabc5e9bcd3ffedU,
  0x3dd44367bd84fec3U, 0xbe2c1146bca2bcfbU, 0xbd41fd80bdb04269U, 0xbc14112bbd141465U,
  0x3e5f022c3e8ec022U, 0xbd0757143cc1f283U, 0x3d4354c13d60ef5eU, 0x3e63418b3e8c27beU,
  0x3d7d08713cab3d8bU, 0x3c162e773cf9f457U, 0x3de7874e3e14f02cU, 0x3e9bd3bc3e6bb30dU,
  0xbe7d75a6bd7e51b7U, 0xbd9c74e4be0113ddU, 0xbe42242cbd5bcfc3U, 0xbdea865cbe623183U,
  0xbd69fd2fbdb4fcf7U, 0x3d2fa348be183571U, 0x3d715a413e418ed7U, 0x3d289b713c176adcU,
  0x3e03a7723d5b66b8U, 0xbc2ee9583e3de520U, 0x3db78f623dc3f58aU, 0xbd66aa1bbd4029c2U,
  0x3e289dab3d2d7fcfU, 0x3e90fab13e654d13U, 0xbe6ca55e3d8d2ff4U, 0xbe1937afbe66f603U,
  0xbdb21f73be3dee0dU, 0xbe08b019bd4d5648U, 0xbbbef4cabe339b91U, 0x3d8c1e52bd0f0b3fU,
  0x3d6658d13e5367c3U, 0x3d21240a3daefad9U, 0xbb07d4913bad52f7U, 0xbd457e493e003ad5U,
  0x3e10e82c3d7822dbU, 0xbd77b5d7bc8d73f6U, 0x3df456e6bc7f2e52U, 0x3e859b1c3e4a9583U,
  0xbc37d1443e46d683U, 0xbd47f1dabd7cd398U, 0xbd97fd673cf87bf2U, 0xbd859e89bd9729e5U,
  0xbd8c306cbd9dd820U, 0x3e1e69d13ddc15a8U, 0x3db18a463e1643f4U, 0xbd920085bd26d971U,
  0xbc8fdd72bd6aaf69U, 0x3c33bbad3e239aeeU, 0x3d0a02a2bd5edd49U, 0xbd717f2a3d2ccc4eU,
  0xbc8c8cbcbe2264abU, 0x3e5015ed3e092a06U, 0x3d7f08e33d62f6b3U, 0xbd2dc2133ce9a58bU,
  0xbe153a17bdff1c0dU, 0x3d42ab00bdb94ebbU, 0xbd68aa3b3ba05352U, 0x3e60aa183c9e7113U,
  0x3d816d6e3dc9b688U, 0xbcd1aecdbd7badbdU, 0xbc9881283c0ebc88U, 0x3db567a23e00bd83U,
  0x3dece7663d9be8ddU, 0x3d0a94e9bd603cffU, 0xbdc917e9bd81fa38U, 0xbda6fed0bcbccac4U,
  0xbca99913bc40dd9cU, 0xbd67e0fdbe548c87U, 0xbdd47713bde5475fU, 0x3cf3cd7cbdeb0e23U,
  0x3de358c23d254b81U, 0x3da071cc3e19c9a8U, 0xbc8688b33c81bbd6U, 0x3ccd17c03db83faaU,
  0x3d1294473e0ebb8cU, 0x3d2f9a353d9db4b8U, 0x3d4dda833e33c735U, 0xbddc00953deb223cU,
  0xbdcd81f3be085734U, 0xbda1cb0abe18cc59U, 0xbdcc6accbc6683feU, 0xbe1dcff4be1f335eU,
  0xbce764a0bcebfe93U, 0x3cf41e86bdcd2deeU, 0x3dc566873d8a21a1U, 0xbd7f09033e3e0c13U,
  0xbd4e0f44bdc56b52U, 0x3d2e120f3d930015U, 0xbd6057283db058a8U, 0xbd064f58bdfb9ec0U,
  0x3c2905d83ce973f8U, 0xbde79d8fbda8b97cU, 0xbe1ac5acbd4c942eU, 0xbda0eaa3be3698c5U,
  0xbe1ee929bc31e066U, 0xbea79429be82e134U, 0xbd53fe14be2f06d0U, 0x3de1249c3cad3f80U,
  0x3d3b2584bd4655aeU, 0x3d7cc5a43d85b70eU, 0x3da359eebc9f1e69U, 0xbd4e832e3dbaa04dU,
  0x3d00a14fbcec83d1U, 0x3d866309bda1adf7U, 0x3c79835e3e1fd841U, 0xbe09e1cabd0d4ce2U,
  0xbd173e95be04fb10U, 0xbc9a1b9dbd788f62U, 0xbe00fcc5bc53525dU, 0xbe49bed0be8c74d4U,
  0x3d3bb664be0174a8U, 0x3d8027773d8441e7U, 0xbd610ff2bd23f565U, 0xbd0aff3bbd2ce5ffU,
  0x3db88987be3c458eU, 0x3a067d7e3d8a495bU, 0xbd84eb54bb611940U, 0xbb256887bc2fb5deU,
  0xbd6137ed3d0a59daU, 0xbe488ae9bd003c0cU, 0xbe2eac6fbe468730U, 0x3dfcc122bc4989dbU,
  0xbc5085193e4d6eefU, 0xbde38af4be52ea9cU, 0x3e13fdb6bc81c088U, 0x3ccb8780bb92f156U,
  0xbd6593403d30d0e4U, 0x3da1945abce2c889U, 0x3e36cfc9be1bbd67U, 0x3d51e9fabcfa61aaU,
  0x3d1494513d52c55dU, 0xbd394cb4bdd1d645U, 0xbdaad1d4bd96b38aU, 0xbe69c00dbd6a4065U,
  0x3c9c4c15be280a52U, 0xbd6b100fbde5cfc2U, 0xbd0ab8613dfeff64U, 0xbe0af2c6bdeac2feU,
  0x3d0a38823d5f6dbbU, 0xbddd4d3a3dca9ec3U, 0xbd06fe44bdbbdb4cU, 0xbd04defb3db88e1aU,
  0x3d6e31bcbce91854U, 0xbc690a753d386491U, 0x3d81abe8bc61f1bbU, 0xbd2ebe5bbcda486aU,
  0xbddb99a43d317e6bU, 0xbaa7512fbdf6aa13U, 0xbd3e5f6abdc32936U, 0xbdac6723bdb65cf5U,
  0xbd22c33cbca3a917U, 0xbd8f02ebbd75d22aU, 0xbd6edbd83d29d289U, 0xbd3b6fe5bc99f73aU,
  0x3cca10e6bdd19237U, 0x3c6affd5bcfaa225U, 0x3daa9938bdb6e123U, 0x3d40b72a3d1932afU,
  0x3c8ade7d3d57a17aU, 0xbcc935febd82f36bU, 0xbdaf9da8bc2fe01aU, 0xbd973920bdb56d03U,
  0x3e161a8b3ddf2a66U, 0x3da3a700bd6edb03U, 0xbb031c693c094abbU, 0xbbc7b6d1be003c51U,
  0xbd1468063c7b7932U, 0xbd7a31c7bd1fac39U, 0xbd013ed7bde8f329U, 0xbe154e18bd1169a0U,
  0x3e0c381cbe1a5827U, 0xbd1f93013da4d06aU, 0xbcfbbeb8bd73d7c4U, 0xbddf0c56bde105b0U,
  0x3d7314f4bda8f185U, 0xbe160e5cbc180018U, 0x3df1a87fbcde654cU, 0x3d113e003d207c0aU,
  0xbda5d0663bbb3a73U, 0x3d820019bdef3e8aU, 0x3cbc4f503d06a72eU, 0xbb4212db3d095efeU,
  0x3d58eb6a3d9c40bbU, 0xbe38e674bc54fb0cU, 0x3e35cb86bd98967fU, 0xbd214a91bd1f01e5U,
  0x3d0887a1bcf1e114U, 0x3d145debba82e84dU, 0xbdfb90d6bc6ccdfaU, 0xbd26aa15bdba8023U,
  0x3df1ab3e3d833b35U, 0x3d204ee03e0cf8faU, 0x3d833be5bcb0d257U, 0x3d5852f13d2ae3bdU,
  0x3cd17f583c5e37dfU, 0x3dd5405f3cc6aed7U, 0x3d02ae3b3c9c92a1U, 0xbe1300a1bd4b83d5U,
  0x3e6e015dbd87c37eU, 0xbd0ba076bcbdaf3aU, 0x3d8cf00d3d352d92U, 0x3b295b60bde1ed71U,
  0x3d9992ba3dfdabe5U, 0xbd300a7fbcdd94feU, 0xbd38da363cf284beU, 0x3cfa7a3d3dd66aa0U,
  0x3d217bcd3dbb9828U, 0x3d302c9c3dab90b3U, 0xbb8546de3c781e0cU, 0xbcca9da83cf03ee2U,
  0xbe30e3a4bb99b3d1U, 0x3cff900dbe1f3977U, 0x3e077feabcb84395U, 0xbd8b08b0bd98d998U,
  0x3d9e53533d64a1b6U, 0x3da30310bb9b25ddU, 0x3d8522593d1c71bbU, 0xbdfd232d3dbb1784U,
  0x3d88d077bc795136U, 0x3ce1abcebd906864U, 0xbcff61cbbc9f538bU, 0x3d7b83e4bb4b296aU,
  0x3d2970053d8a8f62U, 0x3d521db63dde0161U, 0x3d93337a3ddcc162U, 0x3d5d3544bc80e1b3U,
  0x3d89cd8d3dd8a1b7U, 0xbc607b98bd85e3ceU, 0x3d49d5163bdaf9c0U, 0x3c600cb5bd7d4023U,
  0xbd77cad23d7a9888U, 0xbd81427d3d702a8fU, 0x3da6326a3b7ee9bdU, 0xbd9bead4bd9f2116U,
  0xbd1f215e3daed5c9U, 0x3e1723933d8702feU, 0x3daae0473e1e3fe1U, 0x3d6f56c43da8f1a7U,
  0x3db2e9e03dfc9a24U, 0x3ceb83823cb084c0U, 0x3d914ba53dd601dcU, 0x3c9c9d043d1eaa76U,
  0xb924dc003cd92b58U, 0xbd9270ef3d64b7f6U, 0x3a116a64bbd5ca72U, 0x3d3a0f863da281d5U,
  0x3e182b053e3e9de7U, 0x3d0f99f53db48796U, 0x3c0216063db1de17U, 0x3e679a473e168187U,
  0x3d8015e53d8d6ea1U, 0x3c9caaa13d0a17afU, 0x3d9c710f3de08575U, 0xbd298b9bbc5f63e5U,
  0x3d6dd14a3cad2f4aU, 0xbd9ac57a3d83b0f3U, 0x3da4cd373d76e70aU, 0x3bf994603d1be198U,
  0x3d5c94d03d928239U, 0x3db2aed43d7c223eU, 0x3e8086703e339fcfU, 0x3e2528283e0a45f6U,
  0x3e282c3f3df2644eU, 0x3defff623dbd78ccU, 0x3e3e6b3b3e70bfa9U, 0x3e50246b3e5dcc19U,
  0x3dc3f9713d84f82cU, 0xbcca88023a04631eU, 0xbc534fd0bd2aceedU, 0x3d89b5473d0c9b3aU,
  0x3d177d90bd4a5bf8U, 0x3d71d1523ce5178cU, 0x3da08c853d86ad17U, 0x3c97e5003d14146eU,
  0xbd6561273da29255U, 0x3d97a28d3d6cfdb6U, 0xbccbb05c3cd3b3f4U, 0xbd953671bc77657dU,
  0x3d631952bd7f66faU, 0x3d25b102ba90a540U, 0xbd5c2e153d386492U, 0xbd0c18f7bcd05d00U,
  0x3ca03d383d9ebd91U, 0x3b6d48203c55c3a0U, 0x3da0aad13d2bf78cU, 0xbd9392273d0813b6U,
  0x3c30ee523cafd319U, 0x3d07bfb9bd632dadU, 0xbcf9ec303d9c6fbdU, 0x3cdca6183db8a32dU,
  0x3e073d793d863accU, 0x3e4ddd233df50b0cU, 0x3d66b3763e657d44U, 0x3e0568953da7cafeU,
  0x3c75f3263d2fd5c1U, 0x3d13f7403cef4d93U, 0x3d14bc34bc2e88d0U, 0x3d3ef3523d9c72d5U,
  0xbd1814013c1d63c0U, 0x3d90b2353d8e81abU, 0xbc2b34263da7685fU, 0x3ca05dfa3dcced12U,
  0x3d49715d3dd261abU, 0x3e1e87cd3d1c3c65U, 0x3e5f00c93e9202eeU, 0x3e0d0ebd3d594630U,
  0x3cacea2f3e0edb95U, 0x3e85b8c33e152322U, 0x3e7d74ee3e3f24f6U, 0x3cffb9ce3e777e68U,
  0xbd2aaea83d6ec223U, 0x3d57a9ba3d3bc836U, 0x3da3495dbc0cdae8U, 0xbce70fc13d1c986eU,
  0xbdbe2bf23c5dfa39U, 0x3dc001373d7ccb0eU, 0x3dd2e73fbb8e55e7U, 0x3c5e10143d0103c4U,
  0x3d55a61b3af815d0U, 0xbe37ba18be23eea7U, 0x3d3eb1dabe1d9372U, 0x3c2fb20dbd4de6f1U,
  0x3e0b50f3bc982928U, 0x3e66547d3d2aacb5U, 0x3d84bab03e0734d1U, 0xbd7252f83ce7c3e6U,
  0xbd8087e0bd112cb4U, 0x3c75b4463d3c747fU, 0xbcbf1bf23d574684U, 0xbda007f7bc13abcbU,
  0xbe563303bde81226U, 0xbd340531bd9ce7d4U, 0xbe01f03dbdb1c150U, 0xbdbeea30bdfcc928U,
  0x3d940c74bd9a53d2U, 0xbd1c8652bdf74735U, 0x3ca3a2e0bdc49b03U, 0x3dad5c9cbce78996U,
  0x3e0cb2aa3e2f3968U, 0x3da6b2063c51dd9cU, 0x3adb4f003d5e632aU, 0x3bb390883b0dde74U,
  0xbc3101763d793232U, 0xbd4baf02bdc7cfa8U, 0xbe5dcdd3be2e96c3U, 0xbd460ba0be5c2048U,
  0xbd93e089bd3f2662U, 0x3c0b02e3bddc2024U, 0x3bf3626e3ccf79dbU, 0xbd25bef83b434c27U,
  0xbbeb70ed3b067965U, 0x3decfba33d0fad45U, 0x3e12d261bc3fa0c3U, 0x3d588ec03d4743f8U,
  0xbcfac7193c8ece04U, 0xbcc6a1f1bd5731a2U, 0xbe0d7c3bbdd3cc3fU, 0xbe23310abdbdc5c9U,
  0xbe60a033be87f4bcU, 0xbd5cfd8abe01c60dU, 0xbd9e2583bd62a190U, 0x3dd8fdf5bd26cd44U,
  0x3dd6f0bb3d2b0c5fU, 0x3dc762bc3e13fb82U, 0x3d3ab2113d55b376U, 0x3e6129863daf09f8U,
  0x3e07804d3e38428cU, 0xbccd7ca83d90aa99U, 0xbc7f263cbd75ccd6U, 0xbdb477243c6bfdc1U,
  0xbe2fef22bded6962U, 0xbddb1011bda6e5a7U, 0xbe06b3a4be4b5f10U, 0xbdcfb50abdb83e3dU,
  0xbc6bfbefbdac4de4U, 0x3d91ef2abdaf8098U, 0x3ca8121d3da52a04U, 0x3d1e3d263dc5a1f9U,
  0x3e36eb623d76ed5dU, 0x3e55682c3e1459a5U, 0x3d141ccd3e355b50U, 0xbb7017023d965213U,
  0xbd57277f3db76163U, 0xbe0c5934bb68bb92U, 0x3cb8e6a5bdc8a3f0U, 0xbe59eccbbe0d75eeU,
  0xbd46a64bbd88ecd1U, 0xbd48ba4fbd67cb6fU, 0xbcdcc217bdc1d14dU, 0xbde18508bd9baf00U,
  0xbdc5b613bda3839fU, 0xbe2c2a71bde2d9e5U, 0xbb168e01bdedabcdU, 0x3d7c27c23d39dfd3U,
  0x3e0da4b33e781c3bU, 0x3d9f2bda3dd39eecU, 0xbce1cba6bc7e1393U, 0xbdbec901bd67df15U,
  0xbddb498bbc77bd03U, 0xbdeeb652be2219abU, 0x3ce12f93bd67620bU, 0xbd272cae3d28c7ebU,
  0x3d77de60bd03c15dU, 0xbe1e7ad73d403947U, 0xbdaf7a7cbdbbd229U, 0xbe7faa8ebde1a285U,
  0x3d9416d4bdf14a87U, 0xbe05493cbd76c5f9U, 0x3df9338d3ea9a0d3U, 0x3dc615043e0c54e6U,
  0xbd12907a3dbdbdacU, 0xbbffc32b3b612377U, 0x3c913a12bdefa8e0U, 0xbe1f92b6be050e2aU,
  0x3d4739893d773d6eU, 0xbdb1b49bbde3331aU, 0x3c30a8b23cf9eb7bU, 0xbdcd26703d4ba07dU,
  0xbca8e00dbd96aa90U, 0xbe176791be2ac4baU, 0x3cd77aa4bdece5e6U, 0xbdbd482bbcbe750dU,
  0x3e4edb1d3e4a217eU, 0x3da7dd743bb45a68U, 0x3becd1e63db9f22aU, 0x3c5f770f3cb48a19U,
  0xbd4e4a09bdf289f4U, 0x3d2d2852bd88dd72U, 0xbda21bf83d9eb948U, 0x3cc37688bd04bf25U,
  0xbcac63e43bf41f7cU, 0xbddff8e33dbcfecdU, 0xbd05d73dbc1586beU, 0xbc8556d63c803f53U,
  0x3cd092c3be10e95eU, 0x3c96cd71bd1d9fecU, 0x3d660c533e7b541fU, 0x3b8371e3bd201427U,
  0x3d970ef9bd509b6aU, 0x3d602f593e048943U, 0xbc913b133d498268U, 0x3d8f9422bdbf4f69U,
  0xbcaf032d3e1955e0U, 0x3d17ff99bdde5d0aU, 0x3d7f06ab3c68e343U, 0xbd7bb91ebd3b32ccU,
  0x3d85b88f3d9b8d37U, 0xbe01a590bd86b6baU, 0x3cdd7039bd8622b3U, 0x3e8618c43de08e75U,
  0x3e74b7513e8b8c46U, 0x3cca95dc3e0315d7U, 0x3d05f2e2bc68b807U, 0xbd5aba7f3dd9bf3fU,
  0xbd635ea0bb161e65U, 0x3d25947c3c85f20dU, 0x3cd839d2bcac8f83U, 0x3dc900963db749c2U,
  0xbd5e9fd9bd0be5afU, 0x3e3da2433db09894U, 0x3d9bc5e53daa4362U, 0xbe37cd2d3ba2800cU,
  0x3dfc7b2dbb1f9589U, 0x3e9ceffb3e185a91U, 0x3e027f5f3ed4473aU, 0x3d132a793e791baeU,
  0x3d899a13bda1201cU, 0xbcfc8fd83da9eb60U, 0xbcc779753c829f7cU, 0xbe1064c1be2bc767U,
  0x3d356d53bd6e2049U, 0x3cc6547ebd67e02bU, 0x3e0a2a103d985d13U, 0x3e06848d3db22822U,
  0x3c85ef013d867e0dU, 0xbe1e278cbde9b361U, 0xbd295e2ebe93aa7bU, 0x3e6319843c526720U,
  0x3e95d9613edaba72U, 0x3dbf829d3dd9270dU, 0xbcc34538bd8d4b1cU, 0x3db4c6de3da30648U,
  0xbdc0d5f4bdc737c1U, 0xbe0981b3bcfc2563U, 0x3d687967bdb6ab50U, 0xbb2f116e3d4f8fb6U,
  0x3d3a9867bdc949afU, 0x3d9fa4423e122884U, 0xbe443230bc58cfd0U, 0xbe040fd7be7cc951U,
  0xbd25fbe8be141983U, 0xb9eeed9dbe190ad2U, 0x3ebbfcc83e947f90U, 0x3e203a373dc00948U,
  0xbd5681193ce9b8bcU, 0xbdc3208dbaf21d61U, 0xbb3971e5bd59262cU, 0x3d7eb33c3e34e30dU,
  0x3d1caadb3dcbbb75U, 0x3dc55a76bd2ab1a1U, 0x3cc18404bd9fada8U, 0x3d3b11d73d939306U,
  0xbe4219113d65b8c0U, 0xbd0e910ebe22ac12U, 0x3dd6143f3de06f52U, 0x3deaa8133e852846U,
  0x3eacafdb3d72e7b6U, 0x3e0fa7383e2d9e6bU, 0xbd857763bd8b913dU, 0xbc086e9dbd8d8dffU,
  0x3d916460bd891f90U, 0x3dc8e09b3e326bd0U, 0x3e889f233de52042U, 0xbdae00a63e17a78bU,
  0xbd465eddbdefef55U, 0x3e1573e53e5a2e7cU, 0xbe7305c53c3a852cU, 0xbd3001d3be33f706U,
  0x3e1bd2e73c27fc1cU, 0x3d6dc1313e175506U, 0x3efa5b8a3d9a193fU, 0x3d80a0d53e9648baU,
  0x3c81503a3d45d520U, 0x3d91991cbdaceb74U, 0x3e300df33d6d4c62U, 0x3df4d5fe3e05d384U,
  0x3df4bf3b3e575ddaU, 0xbd982fd0bd0790a3U, 0xbd549ebbbc9f61fcU, 0x3da50e693e0be190U,
  0xbe77108ebe24dc4bU, 0xbe32858fbe4cc50aU, 0xbc1be5e5bd76afbbU, 0xbbf9b455bd901cb3U,
  0x3ec5b7f03e52d1a4U, 0x3dbda51a3e0d13a2U, 0x3d193c69bd102338U, 0x3db7aa8a3d8bb0b0U,
  0x3d4d9500bb68d0f0U, 0xbdca59d7bbde14a7U, 0x3d57d1b83d5a669eU, 0xbd9001f8bd5dd58dU,
  0x3c627f83bddb4b4eU, 0xbceaad083d9278afU, 0xbe6c0d4cbd269c03U, 0xbe5afaa8be2eeb4aU,
  0xbe0ba30dbe1b91f0U, 0x3bc28b97bcbf771bU, 0x3ea7c0c83eac94daU, 0x3c7ba4353dae86f1U,
  0xbcaba9dbbd5e8c39U, 0x3cfa9619bba85f46U, 0x3dcea8333d80cd3bU, 0x3bf510bd3b3e320aU,
  0xbd6bd884bd125da2U, 0xbe5d897fbe3c1c0eU, 0xbd49b21abe27ea4eU, 0xbd2c1f76bd98c6efU,
  0xbdf91be1bddaff41U, 0xbe6645f5be957bc0U, 0x3a9e2ea3bdead762U, 0x3cef85f6bd6ad408U,
  0x3e18840b3e9fb49fU, 0xbd17ee493b95832eU, 0xbd1bbf02bb70c576U, 0x3d38988d3d12333eU,
  0x3d85f4c0bb8aa4c2U, 0x3df73ae3bd0d57adU, 0x3dc200ab3d9b1651U, 0xbe021608bdd4d24cU,
  0x3b0b64bdbd56cb92U, 0x3c9bacc83db0cb87U, 0xbdcf0a2ebe08ea6cU, 0xbddb1380be6560ffU,
  0x3df7b8ba3ba81f0aU, 0x3bdd8be33d12ab7dU, 0x3dc863bf3e8b544bU, 0xbcc3bcc63d94af78U,
  0x3d80e4683d4c592fU, 0xbd89b679bd9e6547U, 0x3da12113bbccf400U, 0x3d8df9263dc1a2b1U,
  0xbbc1d5bc3d904255U, 0xbd69f67fbc1f9af0U, 0x3e37d9f93d630e7dU, 0x3d2b9f493db68369U,
  0xbd32a44d3d89c496U, 0x3d6b2eb9bca26831U, 0x3df59e753e0b5750U, 0x3ccfa8433d797d28U,
  0x3bc0aa093e0f8c26U, 0x3cbb1db8bd64db08U, 0xbc15b53839e18500U, 0xbdaa58983d67848fU,
  0xbd5eab19bd18aa03U, 0xbb84f362bd2726a5U, 0xbbcc39cc3c8d2818U, 0x3bb9b90fbd4cdd57U,
  0x3c5a2e5a3dc1915eU, 0x3b660a1b3d42940eU, 0x3dc3ad933d5ec50cU, 0x3e1e69d0bc5a9c47U,
  0x3e1d60083e3375bbU, 0x3e42517d3d88bb7dU, 0x3dd24f7f3df3751fU, 0xbd9c0d083db04c22U,
  0x3cf43700bd9dc437U, 0xbc2d369dbbf47a19U, 0xbd9b142abdd8b821U, 0xbdd2e32f3a5ff019U,
  0xbc918e63bd553e1eU, 0x3caeb965bd43165fU, 0x3dc7f5f1bd40c6edU, 0x3e1505ecbad525dfU,
  0xbe186e52bcc2385dU, 0x3dc1c877be728f33U, 0x3e2e7c843df9a3a3U, 0x3dde43003db0d9a2U,
  0x3d99f42d3e3b1227U, 0xbcf382fa3d2c5f22U, 0x3d3c0d8a3da09251U, 0x3e1d22233c10e180U,
  0xbe05223abb981cf2U, 0xbd3cc8debe397074U, 0xbc1ca3a9be05d25dU, 0x3d14b0d8bbd4b1eeU,
  0x3d7011d53d974825U, 0xbcc716663e1826deU, 0xbdf91582bd67e626U, 0x3cd279b9be05a2d3U,
  0x3e2d13fc3e3f22c0U, 0xbccf444d3d8bbd7bU, 0x3e040b263dcf7aeeU, 0xbd643f1a3dd2c181U,
  0x3cfbd7fc3d05a87eU, 0xbc0c5cd73da49a11U, 0x3cb54d663cab8306U, 0x3dcc7dd03dc004c5U,
  0x3de381da3d062984U, 0x3cbdef1b3d82c7bbU, 0x3dd608a53e5c18dfU, 0xbdc8316b3d27d115U,
  0x3d94daf3bdc65490U, 0x3d685491bda50fceU, 0x3e29a0ef3e5ed048U, 0x3dc6f9103d8bc372U,
  0xbd55c9353d86beccU, 0x3d11622c3d9239c7U, 0xbd986ddd3d9785e3U, 0x3d07f3ccbd799f9eU,
  0xbd60640b3d1234e2U, 0x3b035bafbd985e14U, 0x3befe49b3d9f93c1U, 0x3dfbf41d3ce7a60bU,
  0x3d7514a43e36df95U, 0xbc94b6f23d9d04e9U, 0xbccbe4fe3ccfa25cU, 0x3d28bd8f3dc09da1U,
  0x3db3785a3d525492U, 0xbd97f6a93cbb0b85U, 0x3cdcd99c3d5db626U, 0xbba61350bd6f459cU,
  0xbd736bd63d40a612U, 0x3d07e2e23aa36ec0U, 0xbc6f7c30bd86b865U, 0xbcd13f183d565a7eU,
  0xbd4557aabd9e4954U, 0x3d8e5af93d6ab62aU, 0x3c9a2947bd21812fU, 0x3c5540e0bd8ce4fbU,
  0xbd0294713bc20900U, 0xbd9ac5cd3ac5e9c0U, 0xbc768360bc360eb0U, 0xbd6e2aecbd88d8a6U,
  0x3c04f908bd0ffa92U, 0xbd3e4ee73c5096a8U, 0x3d45f5d6bd069683U, 0x3cbe5e48bb900df0U,
  0x3c85cadcbb5fa000U, 0x3d48dcc23ca20768U, 0x3cead80b3d8cf27bU, 0xbd7eb46b3d294448U,
  0x3cd582d5bd2e8003U, 0xbdaaab5b3ca92404U, 0xbb40d9e73d8cd00fU, 0x3d46bb19bbdd3cf3U,
  0xbda3cc32bca613f6U, 0x3cd16f08bd55f900U, 0xbacd19403d8283e7U, 0x3d59b0bebc0461e8U,
  0x3d2a3e82bd77bf62U, 0x3ceacc303cf96c8cU, 0x3b1c1700bb3fd7e0U, 0xbcee7c5dbd1dd6f3U,
  0xbe1f3badbccfc703U, 0xbd93e7d9bdcf889cU, 0xbca06910bd615c00U, 0x3b3ca192bd83c958U,
  0x3b201d38bdd3b25fU, 0xbc9d7230bda49cf8U, 0x3d09a946bc472661U, 0xbd3b5918bd9ea80aU,
  0xbd987bcc3a70e100U, 0x3c282e60b91c7c00U, 0xbd3511e63c9c74e0U, 0x3da494813c8b5c10U,
  0xbc2d03ad3b81fdb9U, 0x3ba38d92bce7b305U, 0xbce3230d3ac2c934U, 0x3d529aa83d30fb10U,
  0xbd93d662bd1f9496U, 0xbe3d3990be215c7eU, 0xbe32c934bdcc9df7U, 0xbe1448b9be303053U,
  0xbc808299bbc362e8U, 0xbd2556f6bd32d9e6U, 0xbd7b9845bcb170acU, 0xbd0330ddbcde8df2U,
  0xbd258b5a3c352170U, 0x3e13957a3cb612b8U, 0xbd68f4883e04998aU, 0xbce176693c245486U,
  0x3b9a81313cb75a29U, 0x3e0a12b43ddf4294U, 0xbd19e57a3d0c0debU, 0xbe048c45be185404U,
  0xbdb7be4bbe488e46U, 0x3cc6209bbd2ff346U, 0xbde50473be0a7d26U, 0xbe0d166cbe06b975U,
  0x3bbefd14bd35092eU, 0xbbd1aa603c8ef898U, 0xbc99c930bbf38600U, 0x3d1d0f813c3d3d75U,
  0x3d960dbf3d9cb2e2U, 0x3d622bbbbb6653edU, 0xbdd307ab3d428df7U, 0x3dc234f7bcacbccaU,
  0x3c9941c83d375131U, 0xbca1f5823d64827fU, 0xbd0d4431bbddddb6U, 0xbe103e46bd2eb118U,
  0xbe8e0f5cbe023065U, 0xbdfe5989be4e3000U, 0xbda4faffbc916abfU, 0x3bfe20a03d190416U,
  0x3d9aa8453d8d3ccdU, 0xbd968e0fbd1dd663U, 0x3e0b93e83dafba13U, 0x3cd0df0e3d7edc10U,
  0x3d7731b03b80e334U, 0x3c90bba03dc559a1U, 0x3da046513e09a358U, 0xbc8bc3afbd16383eU,
  0xbc3051c53d0d398bU, 0xbe20fa393cc66bc4U, 0xbe04d6d8be66c236U, 0xbe35f687beba6b11U,
  0xbdb96fe5be1e491aU, 0xbd98480f3c146bc6U, 0x3ba8ab1c3d757dc6U, 0x3df2e1633d4e1172U,
  0x3e1026e43e0b492aU, 0x3d4dc5ef3da6671bU, 0x3d5efe2abce5b536U, 0x3e1ffdb63e0925bbU,
  0x3d58294e3df081cdU, 0x3d81f85a3d9a0460U, 0xbc2f24573ddbe7d9U, 0xbe107658bd8dd5f1U,
  0xbe454255bd5eaeedU, 0xbe87a00bbe6fa5a1U, 0xbc617a2fbe175cdeU, 0xbbc54772bd97b57bU,
  0x3cc0b62ebd6b8290U, 0x3d5c937a3e066aeaU, 0x3c0d5ccd3e1aa9bbU, 0x3e37739c3df996bdU,
  0x3dec2e9a3e247c51U, 0x3d8c60803e0cd0fcU, 0xbd6d5781bdd88361U, 0x3d59721a3c470f0aU,
  0x3d216fe53d9e5ad1U, 0xbdac1348bdd78c58U, 0xbe308516bd0343acU, 0xbe6c74f9be6e060dU,
  0xbddda6a2bdf46e81U, 0xbd1f27e03c3c3c07U, 0xbc67b572bd657f4eU, 0x3da99417bd30ddacU,
  0x3dc813cf3e0a9dd6U, 0x3d541ba13e25830cU, 0xbc7b9888bce4e601U, 0xbe55dde3bdd08b01U,
  0xbe3d7bb1be9514abU, 0x3db9206a3d0006ecU, 0x3da7e1483dae1ed6U, 0xbd4783aebd1780b4U,
  0xbd5238db3ba5497aU, 0xbe3abd8cbe095f98U, 0xbdf25e4abe183976U, 0x3d9e3c73bce15cb2U,
  0xbd985de43d9e0fbbU, 0x3e034b21bdb63882U, 0x3c3797413d089827U, 0xbe0f75fbbdec2616U,
  0xbeb31af3be76f9d4U, 0xbe88d189becb31e4U, 0x3da20103bdf1997eU, 0x3e1c7d403da87400U,
  0xbb86fd223dbbe4aeU, 0xbd946a893d1a9d99U, 0xbd793d13bdf1e6abU, 0xbdd21e01be5cddccU,
  0x3c07946fbdeea999U, 0xbc6b5c143c052cc7U, 0xbaed22453cb6fcc4U, 0x3e465ebfbde12502U,
  0xbe7e314e3c35d573U, 0xbe7832dcbe6e0c60U, 0xbe90d866bea23650U, 0xbd6b676dbe812206U,
  0x3dcce0dd3d08c6cdU, 0x3df6d14b3e5d5a9eU, 0xbcb7f7b63d0a7826U, 0xbd8d3017bb6c30d4U,
  0xbdff804bbe221b75U, 0xbd78cfefbe8a3113U, 0x3d078c24bd1436a1U, 0x3d9788fc3d8cd3a0U,
  0x3bdae3e23cbb2c3cU, 0xbdcc48ff3cfb915dU, 0xbdb83abcbe28f4beU, 0xbe7eba02be48bad9U,
  0xbb3b0e92be3e17ebU, 0x3dc3a9a73df65d74U, 0x3d336afc3e0b2eb2U, 0xbd10de523e270a48U,
  0x3d493821bd888d17U, 0xbd1ceb35bd08e5c1U, 0xbe4ff63dbdac01c7U, 0xbe14767fbe775b3cU,
  0x3d0eb2afbdf6de01U, 0xbd0068ee3d89416bU, 0xbd1f2ff03d08c8b8U, 0xbd9c30b2bd0a3253U,
  0xbd0ab14ebe1c9ff0U, 0xbd2f1cd6bbd7abedU, 0x3d10d7813c3af273U, 0x3d6f53f93de034cdU,
  0x3cffa2fe3e00d02aU, 0xbdd9aa853d622d38U, 0xbda9b0e6bdaedfb1U, 0xbdec68b9bd487439U,
  0xbd869e6fbb2c74b4U, 0xbe5ca799be4a9343U, 0xbb08f34ebe037541U, 0x3c17ab983c7b6d08U,
  0x3d244df93be1ce1bU, 0xbe14333ebdc607beU, 0xbca3e2c6be2a60b7U, 0x3d79a792bb1e5961U,
  0x3e06c31b3dbfc67bU, 0x3de0e8403da4952aU, 0x3d5551453e217870U, 0x3bf3d95b3c362b14U,
  0xbe5ce5d5be319efdU, 0x3d910732bdac0762U, 0xbc919f54bbe93ef1U, 0xba86fefd3d123facU,
  0xbd15c7c3be0b0f73U, 0x3a2c435bbdb649bfU, 0x3c913484bd332885U, 0xbd755077bd72d97cU,
  0x3d648253bddc8fc0U, 0x3de080883e18fa9aU, 0xbc662e5e3c99be04U, 0x3e1ba3153d748c29U,
  0x3d45237e3cee542bU, 0x3bd41b45b8b05205U, 0xbd6124b1bdce8f55U, 0x3da3a52dbc1bf295U,
  0x3ded7e30bd76b2bcU, 0xbbff3f543d9fd033U, 0xbd184b93bd84ca2cU, 0xbca0ba373a8f8879U,
  0xbd7538743d186aa6U, 0x3d52d96abaad0d21U, 0x3d3a72f2bd0d6d52U, 0xbd8f4a8b3b827a5cU,
  0xbd31c5d4bcf5f3ebU, 0x3dea837cbd8ef0d9U, 0x3d007d0a3d866b04U, 0xbc7cd6263d79230eU,
  0xbb6644393bfe304aU, 0x3c89a33d3d05ef9dU, 0x3cb079263d199639U, 0x3d2c8dfa3e090b8cU,
  0xbe3246943c270cf0U, 0xbdbe2de8bbe95f26U, 0x3d0527853d3ef866U, 0xbcccf76b3cac5932U,
  0xbd93bb50bd1eaa10U, 0xbe5df5c6bdff0954U, 0xbe631ad5bda2442dU, 0xbe438175beb03a42U,
  0xbe0bcf5bbe6d8e48U, 0xbc03b5c1bd5f1968U, 0x3d0d30f33e12f906U, 0x3d01419ebc8617fcU,
  0x3d233ebdbc7d4c89U, 0x3da477413e1a2b70U, 0xbe8fad7e3d61fd03U, 0xbdddf543bd6e967bU,
  0x3d8587123c8f53a9U, 0x3d478c183d2cb77aU, 0xbe059ae73c68b43aU, 0xbe37bf07bd82325bU,
  0xbe1d1338be602077U, 0xbe2a195fbe8448e0U, 0xbe6397e0be5ddb06U, 0xbda4a9acbe209d88U,
  0x3d92c40c3d64ff52U, 0x3da7fba6bd8a3ef8U, 0x3c9d5c8f3de2c938U, 0x3c75bcf63db13a12U,
  0xbe8228e7bbd49d90U, 0xbdbf95f1bd9ac0bdU, 0x3d6c3c23bc890555U, 0x3e0dfd2e3d419ff3U,
  0xbd1779073a87e37bU, 0xbd81c7adbdab179aU, 0xbd43d002bdc29ff2U, 0xbddbd80abc546d74U,
  0xbdd2deafbd9f8d72U, 0xbdf27458bd478871U, 0x3d1f154f3ca99ac5U, 0x3b0387d73ca92374U,
  0x3db5a4f73dacace7U, 0x3da57ffbbb8ffda8U, 0xbe1ac102bd92dd47U, 0x3ccb5dcd3d020acaU,
  0xbd07c90d3d5b3f6aU, 0x3e2ffc093dd5b1dcU, 0xbd61d7413d80242eU, 0xbd995685bdb4e29aU,
  0x3d545798bdebfcd9U, 0x3bc0efe33d484d88U, 0x3ca381e3be047e94U, 0xbd6e09aa3d398d6aU,
  0xbd3776fcbdc23174U, 0xbd68c41f3df88fc0U, 0x3df861a23d610b4fU, 0xbc564e3abd3c37d9U,
  0xbe11c7a73da6088fU, 0xbafa0c8abda1749cU, 0x3d9db0d2bd9a0e22U, 0x3d6f25c93d9a2922U,
  0xbc91ea0b3dfd715bU, 0xbce2ca1abd19034fU, 0x3aa86bc4bdeded69U, 0xbde023f3bd1bf055U,
  0xbba25804bd7ef751U, 0x3bdc3f573d4931b6U, 0x3dee3ea1bd02fbb3U, 0x3bdefaa6bc15312eU,
  0xbda94d203d81b08bU, 0xbd6da3603dbb9873U, 0xbe01e65dbdadd997U, 0xbcf76e64bcdf88a4U,
  0x3cd9d2233c87dfe2U, 0x3db14fedbb698c92U, 0x3e41e5be3e7daddeU, 0xbd1baf2b3d83c42bU,
  0xbc5711f73cf921dbU, 0xbd99944e3c8f3b8aU, 0x3cc0d295bc3b740bU, 0x3c874bc7bd0f34b1U,
  0xbd3720533d80d5f2U, 0x3d9f59de3ccd0d00U, 0x3d83e95a3c0679d7U, 0xbd4a6ea43bb38a27U,
  0xbe2b3544bc95271fU, 0xbcdd492ebab8714bU, 0x3cf188b03d156650U, 0x3e0480513ccecf7cU,
  0x3d9e40bd3db34d1fU, 0x3e2dc1a03d8233e2U, 0xbce133c23ce06a18U, 0x3da805393d3d2bdcU,
  0x3d695d53bc395f3bU, 0x3d316c8c3ccdb1b4U, 0xbe07caaabd2f27caU, 0x3d33c1a93b4dd923U,
  0xbdd14aa13cf82031U, 0xb9878c1abca28739U, 0xbd3fbefe3ca0b269U, 0x3d07cb7cbd4576a7U,
  0x3c1bc4203d743e42U, 0x3e0d0b23bc995665U, 0x3e642b583e5577beU, 0x3dd61aca3e175afbU,
  0x3db41fa43d9a885dU, 0x3d94a9343e27feadU, 0x3dbbce0d3d41883dU, 0xbd8946643d80c01eU,
  0x3dc2df7cbdca8ffcU, 0xbde6f72fbdb7bfa2U, 0xbd9de839bc71753eU, 0xbdef70083d33d1c1U,
  0xbd9d1e8fbd64803aU, 0xbd2c916fbd823748U, 0x3cab04303d569ccaU, 0x3cd6bed73ce81d05U,
  0x3e3e5c1a3de18174U, 0x3e6ec3bf3e0c34acU, 0x3d8f02923e0ca921U, 0xbd38c84e3e12c8baU,
  0xbd16e006bcfe19b9U, 0xbcf7614ebdf09d9aU, 0x3dc5b2ed3cd24305U, 0x3e3d65253b580d04U,
  0x3d3ca2833d720497U, 0xbe10d0103ad16fc4U, 0x3d85cf48bc343c9bU, 0x3d22d7c8bb109800U,
  0x3bebc9503cdf5b28U, 0xbd39c82dbd8bc105U, 0xbd392a283dae7f34U, 0x3dacf5b23d06739dU,
  0xbc8ef1293b6bea7cU, 0xbde39e463c8bb494U, 0xbdcd280dbdbbf985U, 0x3d0f3434bcdb12c1U,
  0x3d81df3abae2668cU, 0xbd722cf73daa3ef9U, 0xbc8a6ecfbd06c0bdU, 0xbc8a0b2c3dc3b4a0U,
  0x3d71caf63d9f5b99U, 0x3d5bec1abd761dc9U, 0x3c4b14383d2ecf3cU, 0xbcb73baa3d6cb242U,
  0x3d0deb3abd3937f6U, 0xbba99b893ba81880U, 0xbd24290ebd3ba193U, 0x3ce1b5c6bba01f62U,
  0xbc4d7f96bdc75507U, 0xbdba160ebd82b115U, 0xbc2c2963bd004cddU, 0xbdaa26ca3ca028edU,
  0x3d9b86c1bd52b85bU, 0xbb7256003da16ca1U, 0xbcd7408cbd7d9ea6U, 0x3d79f9b2bd6622a4U,
  0x3c6c1318bda3b844U, 0xbd85b16a3d939e9fU, 0x3d0174c8bd50febcU, 0xbd8c11dc3d46c25eU,
  0x3ced91b43d67939eU, 0xbc0317f8bd4504a5U, 0xbd34c6f43d29159fU, 0xbd740590bd63f5c1U,
  0xbd0e3563bd22ebf5U, 0xbd062360bd85f6e2U, 0x3d5d19dabbe41600U, 0xbca138603b8dd600U,
  0xbbeca590bc3429e8U, 0xbca06a06bd17bb0cU, 0xbd8d5c0d3d90ae49U, 0xbc1a7970bd2fa45fU,
  0xbb9649433d51903fU, 0x3d400db6bd0b7b0aU, 0x3d536ea7bc0c0f89U, 0xbd0586853d02e1a7U,
  0x3db38df23cb7488dU, 0x3e2180083e45d7f5U, 0x3d7c14903e47880dU, 0xbd1e6ee13dcdbe73U,
  0x3d18809ebd8ecfccU, 0x3c99e18ebd48ac78U, 0xbd74bac4bcc3665aU, 0xbcb5dc4a3d8c679fU,
  0x3d1863983d869da9U, 0xbd056c4f3d41a9deU, 0xbccf20e3bcbffb7bU, 0x3c7684aa3dd25912U,
  0x3e4e8ac93e111371U, 0x3df433223d53ac88U, 0x3e5b3a5e3e791510U, 0x3e2950a43e7ea8ecU,
  0x3e3a493c3e8860d0U, 0x3e0493b83da1068dU, 0x3d18399f3dbd3814U, 0x3d793efc3cfe6318U,
  0x3ca12784bd2558d9U, 0xbcf7c6f83d1db5e4U, 0x3ca1f4a0bcf0cbc6U, 0x3da75dd9bd9196f6U,
  0x3cc4d53dbd95ac4fU, 0xbcbc137cbd19d5d8U, 0xbb39df5ebdfbbb92U, 0xbe421d8b3d6ac797U,
  0xbe01117bbd98d8edU, 0x3cac25ccbe2dbd14U, 0x3e0677513dde6380U, 0x3cc67f6ebde33fe4U,
  0x3d4fb8e0bdbdd007U, 0x3df3679a3d9affa9U, 0xbca7f8b03dab6383U, 0x3d97fd4b3d851a2bU,
  0x3c6b6b20bd95aa92U, 0xbcd98f873d25a160U, 0x3ca27f72bd791ed2U, 0xbb6b05053c9a5668U,
  0x3d9649f7bd93f396U, 0x3cb625923c7d089dU, 0xbd7d62623d0222f7U, 0x3cba51acbd03300bU,
  0x3e0ccc8d3e1ac541U, 0x3caaa8e43d696d99U, 0xbd15f049bd0bd5cbU, 0x3e174ad63cfab498U,
  0xbccacb593e2562c7U, 0xbd24a3e23cf8b640U, 0x3d07752e3d5b0676U, 0xbd7d32773d7fcc4dU,
  0x3db90e72be53ccc7U, 0xbddaf4363db02a13U, 0x3b6ede2dbda7fda2U, 0x3c8827213deefdebU,
  0xbda709b6bcb1c584U, 0xbdbbddc6bd455e40U, 0x3cd76748bdad1e3bU, 0x3d9ccc533db5dc57U,
  0xbd4bf8473d07ef85U, 0x3d84b6b5bc7278e8U, 0x3e0a2fc0bc216296U, 0x3d7bbe6e3da6d01fU,
  0xbd5425be3c1b4cf8U, 0xbe1037f2ba251ea3U, 0x3d7d7757be598ba8U, 0x3da10c08bcbdea2bU,
  0x3deb36213cdecf33U, 0x3d6ed75c3d32480bU, 0xbcd4d783bd22b75eU, 0xbca3aa893c817183U,
  0x3d8dffaa3d21c91fU, 0xbd14a1df3e270d00U, 0xbdfdaa5e3c58facbU, 0xbcd7632dbde1fa65U,
  0xbc83dc9e3da50866U, 0x3c5feb773dad7719U, 0x3d771104bd96ce4eU, 0xbe0a8adf3cb11671U,
  0xbd8a5837be0ac3c2U, 0xbcb13f42bd312db6U, 0x3e2fe81a3d3114f1U, 0xbb9c6f413d945cb1U,
  0xbde962f1bd2d9fe4U, 0xbc4160f1be1bd29bU, 0xbcc0067d3d401c92U, 0x3c53c2993da4009bU,
  0xbdadfd8fbbaf2e03U, 0xbb8908963d06f1ddU, 0x3d049d9b3dd14e6cU, 0x3d71a4ef3cf1e989U,
  0xbd87f8333db3db76U, 0xbd0c85e6bd84941eU, 0xbafb4714bdcb436dU, 0x3e27e36b3e404eccU,
  0x3e26c0993da9c6c6U, 0xbd1c3f783d38f996U, 0x3ca44b07bd1ff06bU, 0xbdd52e9dbe33f698U,
  0x3d3d3173be356b3eU, 0x3c9ad7ac3dcdc27dU, 0xbdef98baba85e383U, 0x3a53ba253ceee80dU,
  0x3da867e63de1fe77U, 0x3d8115ca3c9b4cf3U, 0x3cf80fd63ce51184U, 0x3bf24edcbdf9b6baU,
  0x3a9ad6ffbd8a45c1U, 0x3e16799cbc911e8bU, 0x3d99773a3e54cfd6U, 0x3cdca4ff3b53f878U,
  0xbda57935be239fe1U, 0xbe2eef04bda8e557U, 0xbe034465bddc4704U, 0xbd46be50bb173676U,
  0x3d6f07a9bde75aa4U, 0xbd6a66e43b876954U, 0x3ded32363dab0cf9U, 0x3d6f4100bb0dc545U,
  0x3c8c83ef3dce1fe0U, 0x3bb07ad43e6bdf87U, 0xba3ca196bd96a2efU, 0xbcd5bab1bc221fedU,
  0x3e0718f13dbb6a7fU, 0x3b3f37733d12d752U, 0xbe00767ebdaa329bU, 0xbd541c75bdc5385bU,
  0xbde9b777be2d4038U, 0x3c6896d1bda55e46U, 0xbc0b9c6bbc453c76U, 0x3d81b7b83d8b222dU,
  0xbd00e6cc3e4c9e5aU, 0xbb9f83953dc89ebbU, 0xbd6079d6bd43ac63U, 0xbdb350953d57aabfU,
  0xbdf635f2bd8f038cU, 0xbd464076bd92a4dbU, 0xbcc9e28abda0e2ddU, 0x3d1984643daae3efU,
  0x3abd9a323c2e0ecfU, 0x3d8970f93d2aa7afU, 0x3d46e083bc5af466U, 0xbd75df3fbd16a7b3U,
  0x3d72e76a3c45e2cfU, 0x3e820f913d57d1f6U, 0x3d8ae9013e4db360U, 0xbd15f4d63c210339U,
  0x3d890f77bcd68d56U, 0x3c9cd6363e29cecaU, 0xbdce538bbc3c454fU, 0xbd7966f1bd8c5643U,
  0xbd5589603cf63649U, 0xbd99c6abbd6224d9U, 0xbd4433dabd30d0acU, 0x3d2053cb3c6665ddU,
  0x3c8a92093c578d1aU, 0xbd7e72b6bd3c7f95U, 0xbde65eabbe4e881cU, 0xbd521569bdc7937fU,
  0x3e0e072b3de9c975U, 0x3d8a4a8d3dd5dce3U, 0xbd9cab6bbcf61569U, 0xbd87bbb63ddc4014U,
  0xbcb0b94e3c9995f6U, 0xbd8e9474bda20114U, 0xbdf8580ebd847e5cU, 0x3d19d8233bcd7d9dU,
  0xbd85374abdfa5b28U, 0x3dd52a533d1686d4U, 0xbdce49183dda8aceU, 0xbcd035e13c85f0ceU,
  0xbe2a83f1be709539U, 0xbdd4ca01be235ceeU, 0x3e8aed7e3d854980U, 0x3d1c6b403da9a1ffU,
  0xbce952683d425dcaU, 0xbca2ea62bd6586b7U, 0x3d266f533c83ed3eU, 0xbca33f1c3d2f0cb0U,
  0xbdc36e9fbd95b212U, 0xbd119583bdada938U, 0xbdde5b3fbd2f649fU, 0x3dcfa6e53d4388ccU,
  0xbb54e62cbc35d79eU, 0xbdb7693abb37fd18U, 0xbe8dbb7bbe57d07cU, 0xbe0c7abdbe4712f3U,
  0x3deb21dcbd04abb0U, 0x3dbb24713d0f3edaU, 0x3d4e18fabd892ebaU, 0x3d22b55cbd3d5431U,
  0xbc85240d3d755be5U, 0xbc010df13d153c69U, 0xbd92c9af3d9e9d97U, 0xbdee5fb1bda16583U,
  0xbd9415cfbe20f7fdU, 0x3da08dad3ddf0c13U, 0x3c88aafb3d8abbd4U, 0xbc8972213bf69e6aU,
  0xbe1584e8bdcbcdbfU, 0x3d802257bdb0a9efU, 0x3e3633dbbdfb1286U, 0x3de6d7473d8e7c69U,
  0x3c8b8e30bd854f7eU, 0x3d340bdabbc64a51U, 0x3deeeb783da752aaU, 0xbda64ac5bd2257d7U,
  0xbbfb23923d9a7cf3U, 0xbdcf3c52bd4572c2U, 0x3d78da73bdb17003U, 0x3e714d1e3e9265d1U,
  0xbc81f8eb3e57289fU, 0xbe1a44d5bd8b1f52U, 0xbe133a3bbd0fbecfU, 0x3d8d8632bd8126bbU,
  0x3e41c21fbd56e5efU, 0x3d3b05623cd4aab4U, 0x3d77733fbd802270U, 0x3beaa0a1bcd5b385U,
  0x3d43b96f3c9bea2aU, 0xbdafd762bcabca1fU, 0x3d873865bba776e9U, 0xbd823eb7bd6b41fcU,
  0x3e0b94273e22aff8U, 0x3e508d233e6a15fbU, 0xbcba18803dfdfd62U, 0xbd2d4b83bc48aef8U,
  0xbaf5e57fbd9bf190U, 0x3d8d1e843d01a911U, 0x3eea747f3e147b9cU, 0x3dfd437f3db259e3U,
  0x3ce3d8273db43c9bU, 0xbc46651fbcf49d98U, 0xbc3144b5bc4fcc63U, 0xbd6d6443bda829bdU,
  0xbe11d3ebbdce42cdU, 0xbe0b21acbde11628U, 0x3e981a033e5cb712U, 0xbd08a56f3e89033fU,
  0xbdf921abbd811ad7U, 0xbe0b62d2bd97b9afU, 0xbd36dc11be1935e4U, 0x3d0eb91ebc9a28d1U,
  0x3eaf93353e934ed3U, 0x3c8a55f93b647bdbU, 0xbc77077a3d75ca49U, 0xbcfab33fbd6565eaU,
  0xbdbb9e50bd9c5fceU, 0xbdaf1597bdd994f7U, 0xbe8d5a0bbe8b7e11U, 0x3d07ef22be34b50cU,
  0x3eaf6b593eacc3b9U, 0xbd16be743daef510U, 0xbd4e91aa3c078e9cU, 0xbd007b7dbd646e0bU,
  0x3d1e6a793dcad30dU, 0x3e00dcf0bd27761bU, 0x3e8628833e55bed0U, 0x3ba55a133e36a5b5U,
  0x3d7247653cf05a58U, 0xbe1a97cd3cd53cfbU, 0xbe1c211fbd4ea078U, 0xbdaac47dbdbac875U,
  0xbe94d627be7dc232U, 0x3cbe134ebdd5a69dU, 0x3e8a9d7d3e817ed1U, 0x3ddf23533d5475beU,
  0x3b5edf1dbcd3d6c1U, 0xbbf06de13df4ee53U, 0x3d66f4673e1b57e3U, 0x3d1c76163be82badU,
  0x3e93d4533d6f4bb8U, 0x3da026a93d6bcb69U, 0x3a6d02913db2afe7U, 0xbdf8f5afbd186658U,
  0xbe08f9bcbdb5b757U, 0xbdba588dbdc1fa55U, 0xbe352c3bbd75a678U, 0x3c8a096dbe699a3aU,
  0x3e19dc7e3e007a81U, 0x3cfab0373df0d4d9U, 0x3e1689f73d9c74f0U, 0x3d756d4b3dcb003fU,
  0x3de641a73dc44142U, 0x3d42b4bf3df07924U, 0x3e16342f3e0a9dd2U, 0x3cf820f43e326bd0U,
  0xbd0eb5223da8cf8aU, 0xbdda322cbda68f9bU, 0x3b7d1df7bd82e2f3U, 0x3c1e4c43bdbf28b8U,
  0xbe0cdfe7bd74c55bU, 0xbe229901be699c08U, 0x3e18aaf93dc245a1U, 0xbbbdd74c3e014386U,
  0x3d56b4b6bc39b50fU, 0x3dad0cb1bc565cfaU, 0x3e43d8883dd8aa52U, 0x3d61b3d33d0e218eU,
  0x3e2d64af3d46f96bU, 0xbc47d2e8bcc1521bU, 0xbc725e88bd636fa4U, 0xbdce697cbd02f7beU,
  0x3c0672f5be3787eaU, 0x3cf732433cf1b09bU, 0xbd8f918fbc1e43abU, 0xbe6b7ab5be69b5b9U,
  0xbd5b74fcbc0d5ee5U, 0xbd708869bdca10ebU, 0x3d089f3ebd27ae6bU, 0xbcd27a013cc970d2U,
  0x3e50e4ee3d9f3f7fU, 0x3d86ce8e3d95f7b8U, 0xbd2320cdbd91b249U, 0xbc30d8303d284385U,
  0x3c7abf303d63138eU, 0xbe1bdcb0bd234996U, 0x3dacee023c38e66eU, 0x3b06f3873dfe9317U,
  0xbeab7fd9be6c8cc7U, 0xbe5f47aebe09fdedU, 0xbde56a9bbd7a56f4U, 0xbda5fc8dbdb1512dU,
  0xbd744951bd1750f8U, 0x3c50f76ebcfe3d04U, 0x3dc05b793da15fe6U, 0xbd173d0ebd107fadU,
  0x3d9e4f023e068059U, 0x3cd9a1bcbd9ba105U, 0x3d80e58f3d57e84aU, 0xbc514e513d8a66dcU,
  0x3d248e663d0d67b9U, 0x3d4096973deedf41U, 0xbde507edbdeaa326U, 0x3d363c8abe3fcf72U,
  0x3bc45e29bd8e87e1U, 0x3d9425093df3cc6fU, 0xbe1142edbdf5f026U, 0xbe009c69bd9786e0U,
  0xbdc42348be5ca1e8U, 0x3de7f1d2bc290090U, 0xbd80cbdb3d9367f5U, 0x3d98c08d3cd44e38U,
  0xbd6155163ca0ff78U, 0x3d669bcd3b8f05e0U, 0x3e49aa583e16a19dU, 0x3dca16e13e9e56b6U,
  0x3e5ab1b73e52c6b6U, 0xbdbd1e87bc75b3f6U, 0x3e1cc2e03d8c20c4U, 0xbdd7a9d13e16d090U,
  0xbdb5456abe49d434U, 0xbcb08838be092734U, 0xbd433d2abe17b25eU, 0x3d2950b9bde172c6U,
  0x3c9271b93d6dea47U, 0xbbdd4cc0bd2f5614U, 0xbc3849f8bda00a66U, 0xbd7ef881bd82be70U,
  0xbd0badfdbd3156bdU, 0x3d1eb55a3d19b3c1U, 0x3e182adc3e220685U, 0x3e84eaa73e8e5cbaU,
  0x3e2c06143ed20bbaU, 0x3d2909f2ba4f050dU, 0x3d378faf3d35d7ccU, 0x3c28f2a73d4fe3a7U,
  0x3cf551e83d3d7e29U, 0x3d8487613da4accdU, 0x3d1f030ebd8b2848U, 0x3d916cb93d2aafb8U,
  0xbd0ab532bd4e54b2U, 0xbcbabc963b499100U, 0x3bf2ad70bd2e74acU, 0x3d60bc463d269014U,
  0x3d933f3fbc5b34c8U, 0xbcbdd6f0bd186715U, 0xbd85a7fc3d2c9116U, 0x3d85a0b7bd9f3115U,
  0xbc682758bd1d67cdU, 0x3b2cf8a0bcb1ff06U, 0xbd378329bd9db920U, 0xbd4995933d96a203U,
  0xbd17aaa4bd93e0ecU, 0xbca0d714bd74da84U, 0x3bf998203d47f1aaU, 0xbd28611cbd3ed1bcU,
  0xbda60761bcd546e8U, 0x3c8d02453cd4bad8U, 0x3ab46ba6bbac5f79U, 0x3da44efa3d045803U,
  0x3c0ac9103ca36207U, 0x3d25308abd953d60U, 0xbd0031b03db21e4cU, 0x3c9feb533dcd0042U,
  0xbd9132ffbc300842U, 0xbd5caa91bd3697a9U, 0xbd20bf99bca314c6U, 0x3d995fa73d40da0aU,
  0x3d75647ebd91c08aU, 0x3d9f955f3d3e9f02U, 0x3cefaeb53d3eea91U, 0x3d81efb9bd580a24U,
  0x3d32f3773c5900afU, 0xbcfeca78bda205c6U, 0x3e1d7b43bb79516dU, 0xbc13f3d7bc50f125U,
  0xbd563fb5bc160110U, 0x3daed3ab3d612067U, 0x3d9058683d910e52U, 0x3c8211a63c0d3cc3U,
  0xbd97ac623cc916d3U, 0x3d960289bd3cc044U, 0xbc8d7b243d95ac5dU, 0x3cb62e34bc9fb584U,
  0xbdb4da293a298904U, 0xbd4053babddaa698U, 0xbd29a17a3d518ad3U, 0xbddbfdf7bdb3bf93U,
  0xbdec1437bd9e6451U, 0xbd98f271be0f2656U, 0x3d918a743dc27aa9U, 0x3d6148bdbd243dcbU,
  0x3d0ac5ba3ba94495U, 0x3d42acbd3c22d466U, 0x3d5c857e3e17936cU, 0x3cca44443d871298U,
  0x3d1a7c343d271fa6U, 0xbca645e0bd9cb53eU, 0xbc8b3343bda0f887U, 0xbdc1a821bd055ca6U,
  0xbdc5846cbdc4900aU, 0xbdea1c53bd94bfa5U, 0xbe9f9448be6747a9U, 0xbe758c0abe9dc146U,
  0x3c9205363d00b72bU, 0xbd5b56eabe22030eU, 0xbe087660bd7af123U, 0x3cd013a6bdf65849U,
  0x3c11953f3dc48d4eU, 0x3c489218bc5465c5U, 0xbd874539bd4fd34aU, 0xbda8b22bbd509e23U,
  0xbd912fbcbb6f97bbU, 0xbe3a9037bdfd8cbcU, 0xbdebd175bd675423U, 0xbddf5580bbb39d4dU,
  0xbed47c9abea39397U, 0xbe666db4be95d58fU, 0xbcbf8e8cbd56df36U, 0xbdf195cbbe5697aeU,
  0xbd1946dbbddf095aU, 0xbe21cdd6bc0bdceeU, 0x3d11563dbdec12f3U, 0xbcb377d53dbf235bU,
  0xbc05b1903c69dbb8U, 0xbde743783c755ea7U, 0x3c5bbf9fbc863137U, 0xbe33c122bde65e6bU,
  0xbd3495e6be17496bU, 0xbde23a05bd750e31U, 0xbe93cb90be903fe0U, 0xbda4ccffbe9c5913U,
  0xbd43e43e3db877e7U, 0xbd4c584cbe24f23eU, 0xbd38aea23caf6101U, 0x3e12198f3dcec9edU,
  0x3e3f1f02bdfb20adU, 0xbbd78c2a3cfb18aaU, 0xbd66e9223d285a46U, 0xbdea0bbf3d9dba7bU,
  0xbdca3cc1bd70c858U, 0xbddcea82bd9b5043U, 0xbdc3fe1ebdf3de40U, 0xbe374798bd7d9472U,
  0xbe997b64be984149U, 0x3a5fc1c6be39f0e1U, 0x3cd5e04a3ce4eb25U, 0xbd8d32b5bb56973dU,
  0x3e8a04ff3de096adU, 0x3e47eadd3d80673bU, 0x3e1b9948bd1aaab1U, 0x3c9e02773ced6b65U,
  0xbda2932c3d030b6eU, 0x3c9b669f3dabf248U, 0xbe19f3383d409912U, 0xbdaa6e85be722941U,
  0xbd12df74be19033cU, 0xbe76b9ccbe058e39U, 0xbe48a1e1be4c0d08U, 0x3daf615c3d326b02U,
  0x3d60ec6a3e40765cU, 0xbd58f65b3d0c004dU, 0x3e7a8ca53d86b04fU, 0x3e2e04783dc4d38aU,
  0x3e62eb5a3de3a826U, 0xbd3178773d4db15dU, 0x3d0cd54d3d8a6651U, 0xbd35816fbb925fd0U,
  0xbd506dbabdea21cdU, 0xbdbecf5fbe169bd5U, 0xbe1d5b58bdefb0baU, 0xbe079181bdf0af4cU,
  0xbd09a86ebe3bbfe6U, 0x3eacf1e53e87733fU, 0x3cb591933de4fcb1U, 0xbc6e39503a02365bU,
  0x3e20415c3ddc925bU, 0x3dfec5873d666854U, 0x3da0bcc93eba1129U, 0xbd8dbc2bbd1b790dU,
  0x3da39889bd2ff671U, 0xbda0fa813cfa39a2U, 0xbd2fc4a4bdc93350U, 0xbd4e1fab3c68b705U,
  0xbdf5cf1bbd20e47eU, 0xbe1b39d7bdb373c5U, 0x3d85148c3b736cd7U, 0x3e68fe843e11ba4dU,
  0xbdc25a443de98e08U, 0x3c5ad48ebc637dcaU, 0x3b9fff95bd8c4ec8U, 0xbced5aed3d08adc8U,
  0x3d3ce9443e950558U, 0x3cf4511abcf6ecabU, 0x3e386502bd1f7ad6U, 0x3bddfa8a3e977c94U,
  0xbd2fd1ff3b449642U, 0xbda620aebd849bd4U, 0xbd36b729bcc24f61U, 0xbdd7aa20bd88a08eU,
  0x3d44ebcb3ddc1ca4U, 0x3cb5e7cf3d4b42beU, 0xbe8dcc79bd45f9afU, 0xbd8ffd16bea00e73U,
  0x3da1c6d1be124f78U, 0x3d3335a03de36fb1U, 0x3dd47ef63dde9102U, 0xbd0ab7673c6dc4c0U,
  0x3df549f6bccfb165U, 0x3dd41d133e7baaf2U, 0x3c8dd69d3d27627eU, 0x3c2961a3bd6f46f5U,
  0x3cfc37aa3bb0f524U, 0x3d127989bc27bf27U, 0x3def23a03dec05daU, 0x3c3ed5b13c447cc0U,
  0xbe11599ebdb82f5aU, 0xbd6046cfbe7bc68eU, 0x3e689011bd1690f1U, 0x3e6721f03e241c7dU,
  0x3d189b6c3e84a08fU, 0x3da2ee273d94a107U, 0x3c68e35e3cb2e448U, 0x3e3bb7c23e16a195U,
  0xbd70da933d9389cbU, 0xbbc374293d94845bU, 0x3df799913b1c9727U, 0x3e5ff4b13e0c970bU,
  0x3e16cccb3dc1b664U, 0x3c262f583dfb5523U, 0xbcad6dba3da6b14fU, 0xbdd9a311bd955e24U,
  0x3e181d703dd646c9U, 0x3e83bf0f3e5da345U, 0x3e04b6523e48a2dbU, 0xbcab6a02bbe2061dU,
  0x3d5f80f5bd85581cU, 0x3dbad2dd3e169a0dU, 0x3da0c6d83e26b342U, 0x3d6a01283ca6dbfaU,
  0x3dd5c0fb3c6f7a7fU, 0x3cd1402e3e3c2ebbU, 0x3d1b021e3d8c404dU, 0xbde549ebbd965137U,
  0xbb95e0253d70ac14U, 0xbcc6b380bd7c2d3cU, 0xbd2548a13b215989U, 0xbd1005fc3d836692U,
  0x3d4727083be333c6U, 0xbc479a2a3b28e3ceU, 0xbd4669ca3cba8049U, 0x3bd69293bcfc44a0U,
  0x3d4b40633e3b600cU, 0x3e1371da3dcd0d93U, 0x3df2d4a73d7a5988U, 0xbe4473223c77a358U,
  0xbe2a64b5be46ee37U, 0xbdafb6e8be97191cU, 0x3db29a93bd39b32eU, 0x3d86fa603ac3ebd5U,
  0xba44246ebb967be7U, 0xbd121e87bd033f3dU, 0xbd658f93bd9c5659U, 0x3c12e2a13c5d83f4U,
  0xbd3744aa3bd0a722U, 0xbd474040bc5404b2U, 0x3e0a74523e681d0fU, 0x3e049f363e5a5a9dU,
  0xbd0e79a63d1b7a60U, 0xbe3670a9bdd1f609U, 0xbe0ec488be80c0c1U, 0xbd7b5a56bdba236dU,
  0x3d84aa28ba4d4fcdU, 0xbc0bd70cbdf92882U, 0x3d1eb6a2bd862008U, 0x3bff87bd3be8cd67U,
  0x3dd63ffa3c93e5fdU, 0xbced0e1d3d1d0deeU, 0x3c97d5363da29385U, 0xbcfcd474bcc784f3U,
  0x3e22e2c03e614e0dU, 0x3e14af633e52f007U, 0x3d1d72233d616a7eU, 0xbdf2e088bb3bc34cU,
  0xbdca832ebd1c23bcU, 0x3d3645783d261f6bU, 0x3d81d22e3d18fba5U, 0xbd8301fa3be8d06aU,
  0xbd868e70bdef2811U, 0x3c9e74d8bc8c4101U, 0x3d1e69bb3bf2b17fU, 0xbd1e30cd3d88b452U,
  0x3cac68d9bbc09481U, 0xbd9a3df63d791f4eU, 0x3d488f343e0ee0caU, 0xbcdb11d83d90ceebU,
  0x3c959973bda076b4U, 0xbd9faf4dbddd295dU, 0xbd08a274bc900209U, 0xbdbc5608bd619f17U,
  0x3e366cd13d9e825bU, 0xbd9048073d47c63cU, 0xbc85fa8c3b8e2b0aU, 0x3d89d2bfbd843709U,
  0x3d4a66f23c18c3a0U, 0xbca5fa88bda9371bU, 0x3d87ab6e3da3f261U, 0x3cf031ad3df2a011U,
  0x3ccf18063e1d3aaeU, 0x3dc624fa3e0ad47dU, 0xbc3544bd3d890e92U, 0x3d5d58343db74be0U,
  0xbe2a6bf8bcca9fb2U, 0xbca61ce6bcdbba33U, 0x3b1cd33e3d5d230bU, 0xbd1facbebd3f1cccU,
  0x3d2ea883bce352dfU, 0xbc90fa19bc5b4104U, 0x3c7f4c95bd36ee88U, 0xbd7a9df6bceb1cebU,
  0xbd31ea5a3d6ee24eU, 0xbd8387ed3e18d1adU, 0x3d8cf89a3c060b82U, 0x3d3df39e3cf67a23U,
  0x3db795833c74c4d9U, 0xbd8783a3bd019d20U, 0xbdd03204bda2c8eeU, 0xbda3168fbe0becfbU,
  0x3d0ca7443db04965U, 0xbddd8ade3d00c2bfU, 0x3d22255dbd347beaU, 0xbe1a17f33d236813U,
  0xbd0d2baa3c53d9a8U, 0xbd585b50396ab505U, 0xbda258cdbc654978U, 0xbe03b345bcb6c3cdU,
  0x3d81f9293dc17cffU, 0x3d896bfc3c961cfdU, 0x3d75363bbd2fb77bU, 0xbcf878cdbd9d755eU,
  0xbdee612fbe081dd2U, 0xbd89912abdeb5125U, 0x3d7109f83d0ff7faU, 0x3d0b6fe6bcbe3c22U,
  0xbe38e161be321181U, 0x3cc9141fbde8b82eU, 0xbd8fee4d3c9e0f30U, 0x3d9b63f9bbf5a254U,
  0xbd8bef84bc5c8a28U, 0xbd1f90d93de6bff3U, 0xbd466435bd1a2192U, 0x3d8553febcd14ec6U,
  0x3b6ebda33d3ac5deU, 0xbdc57302bda573e9U, 0xbd5debb0bde4685dU, 0xbdc69970bd79a442U,
  0xbd3511b0bcd9f1abU, 0x3ba6d22c3d84919cU, 0xbda197aabe2fa983U, 0x3e42b03abd8b389eU,
  0x3dae5c6a3da4932eU, 0x3d2ecac6bd225054U, 0x3c3335b03d223abcU, 0xbceb62ab3caf8423U,
  0x3d5e82e4bbb7d7c4U, 0x3de20b753e16bc02U, 0x3da1ff6c3d3d6ad0U, 0xbe17a3e93cbc2281U,
  0xbdd08efdbe3d3de9U, 0x3a9845a3be1e2ff6U, 0x3d88559ebe019d85U, 0xbd1d624b3e02501dU,
  0xbd525625bdf2d6b8U, 0x3e68e7bbbc209556U, 0xbd19dae7bd40c860U, 0x3da1fdb93da38ac3U,
  0x3d0b459c3d9008dbU, 0xbdf15e4b3d00a8c0U, 0xbdd097703d487a12U, 0x3e4621d33d24be7bU,
  0xbbd521bb3de429a6U, 0x3dbaee9c3d3fe200U, 0xbd881aed3de2046aU, 0xbdcdd46dbdf43953U,
  0x3e10790a3d910c1dU, 0x3d476db03e330810U, 0x3d6b819d3dc36c4dU, 0x3e4ac7f03d1e41c0U,
  0x3d1c295cbd382babU, 0xbd9ac7a3bc3a94f8U, 0x3d872f5fbd876f3aU, 0x3d531d6bbcc4986cU,
  0xbd4e9451bd6503a9U, 0xbcd3ca273d289662U, 0xbce514fd3cae4365U, 0xbe440612bd5a0885U,
  0xbdf7b5ebbe0a844bU, 0xbe038f3bbe1aa64dU, 0x3e1d8ce8bd6332d1U, 0x3ce6ad753bb7b11aU,
  0xbc6777203de50948U, 0x3d786f813d09af01U, 0xbd207fe83c2720cfU, 0xbd26decd3d186b5cU,
  0xbd0ca9f9bd548e50U, 0x3d92327e3bd8bb00U, 0xbd067d443b094d70U, 0x3c8e59b63deaa15eU,
  0x3c407f84bca7199bU, 0xbd37e900bddab1cfU, 0xba99b3b83e5595faU, 0xbcba8e9d3d7bed15U,
  0x3cb778dc3d86ed3fU, 0xbd145ce13c9a300bU, 0x3d1b123dbcbfca1eU, 0x3d2a8523bd519fbaU,
  0xbd64ac033cb88a20U, 0xbd3683cebd9c3a1eU, 0xbd9f605fbbf721e0U, 0x3d5fae3abc3a4398U,
  0xbca1cd5e3d94660cU, 0x3d173aa03dce7b3dU, 0xbd275d40bd6893b8U, 0x39cf6ec9bcd0cb1dU,
  0x3d1e4fa53e2e8af3U, 0x3da7761b3e00b3ddU, 0x3e23f1de3e53b567U, 0x3d8d72313e4469feU,
  0x3d88322abd6b6f54U, 0xbc90b2b33b9322a1U, 0x3d29d84e3c46d0d0U, 0x3ccfd168bd9469b2U,
  0xbd0b91163d904c8dU, 0xbd7386f83d71a3b6U, 0xbbe80080bd28104eU, 0x3d8c964fbbaf46c0U,
  0x3c6ad0b0bd676627U, 0xbd18a438bd5277d6U, 0xbb655fa03c8dea58U, 0xbd98e02c3d24b0e2U,
  0xbd8c258fbd39b1caU, 0xbb8b1e403ab5d480U, 0xbd8d7b4a3d59929aU, 0xbd11a13dbce7488cU,
  0x3b968660bcc8f6b2U, 0x3d703c06bb47fdc0U, 0x3c6759a8bd943931U, 0x3c22e520bbf408f0U,
  0x3c39a570bd5af026U, 0xbd8e93cc3da3096fU, 0x3d1f7d923cc85b7cU, 0x3c86acb8bcc7a05eU,
  0x3cded5e43d99526bU, 0x3bd3d6f0bcaa9458U, 0x3d9b92abbcbb6dc6U, 0x3d56a7f63d60cc6aU,
  0xbd77fd453d8a9ae3U, 0xbd7c7a87bd74ac78U, 0xbcf05bcc3d203352U, 0xbda02eba3c760448U,
  0xbb9db410bd0e053fU, 0xbd8d605e3b29b6c0U, 0x3d5e50aebc46b2b8U, 0x3d60e082bd40713aU,
  0x3cb17fc0bd602060U, 0xbca6138d3cb6c4f5U, 0xbcb44f19bc743d63U, 0xbd877d4ebb5dad6eU,
  0xbd900b233d9b0f76U, 0xbc4d68ad3c9fcc9cU, 0x3c696c1e3c76742dU, 0x3c786858bd94d9ecU,
  0xbbacc560bd2b8ddcU, 0xbd767cf83c45f638U, 0x3d56bfaa3d26c588U, 0xbc265e083d8ba119U,
  0x3cadd8d8bd36970cU, 0xbb0ccc3b373ce000U, 0xba2a676b3c75e9a7U, 0xbd7356e0bd8a3a18U,
  0xbd4b9fd4bd737a48U, 0x3d485fe23d10d182U, 0xbda6732e3ce71a91U, 0xbd8b6793bcd20a95U,
  0x3c0a570d3c7f6c99U, 0x3cd92de6bcd0ee53U, 0x3d8be6dbbd8d8a31U, 0x3b4d5fa03d8c001bU,
  0xbd94f2703c8d234cU, 0x3da116513c661a28U, 0x3d103ecebdab2e3eU, 0x3c8107c13c42b61fU,
  0xbd29e5babcb2091fU, 0x3cddfc01bd96e5e1U, 0xbd32b8c4bbe554a7U, 0xbd6b2a373b77019dU,
  0xbca16c0bbda14b74U, 0x3d23ba46bc6e6212U, 0xbc5040acbd5b537fU, 0xbd6c02a83dc7f393U,
  0xbd60948bbd63c423U, 0x3a9ef1c03d5e3c1fU, 0x3d9bcdc33da3da71U, 0x3d19ba0e3d9100ffU,
  0x3d366b6fbd60ed21U, 0x3c580c0f3bdf9eeaU, 0xbd98c801bd2ca092U, 0xbd3e1edabd624e3aU,
  0xbc88fc66bb553d11U, 0xbd5bffc1baa24c4dU, 0xbd45bbeabd5780eaU, 0x3d7053a6bd7618a9U,
  0x3b50a8b03d08812eU, 0xbba481c3bd4bcd65U, 0xbb95bce93bac77fbU, 0xbd2c66a13d2834b7U,
  0xbc54ddd13cbbd2a0U, 0xbd39e01a3d2b8a8cU, 0xbdb50d0b3d7d28e7U, 0xbb307f8d3aef5043U,
  0xbcd61c623b209c91U, 0xbd46f26dbd9bef55U, 0xbd018bd33d7cb8b0U, 0x3d5f0c633d216c8cU,
  0xbd5431bdbdf40075U, 0xbd874243bdc17fffU, 0xbdb8a6d2bd5659aeU, 0x3d63c185bdb04826U,
  0x3c9fb5f93caab0fcU, 0x3d76fbe43d5446efU, 0x3d6a335ebd70f872U, 0xbcb7043ebd076311U,
  0x3a8b26dc3d1a654dU, 0x3d0a150c3ceedee3U, 0xbda77c743cd9cc3bU, 0x3d65d396bd386cf3U,
  0x3d3033633ceb11ddU, 0x3d44682fbd9ecaa1U, 0xbc03078abcafe719U, 0xbd028f8fbd817cc4U,
  0xbcf994eabd448c82U, 0x3cbdd909bd24512cU, 0xbd52649e3d68e764U, 0xbc8d51e13d3f030bU,
  0x3cd1c787ba663f80U, 0x3d83e3c13d0471c3U, 0x3bc4e8e5bd75c7a0U, 0x3cf884d13caf8d23U,
  0x3d50885b3dbf6232U, 0xbc127669bd623939U, 0xbe06b559bcdcaa03U, 0x3d085bfa3cde0752U,
  0xbb1ec0723d7050cdU, 0xbd879656bda10022U, 0x3cce4d433caac3e7U, 0xbd2a976cbc745bf7U,
  0x3d4e00efbd5f17c5U, 0xbd6832273d31c252U, 0x3bf37fe93d8199f0U, 0x3c2d1d033db08226U,
  0xbdaa3bdcbd9e3f0cU, 0x3c4390893d98cd04U, 0x3d1644edbc88f1adU, 0xbc4ecb58bd804825U,
  0xbd21b4a5bdc07036U, 0x3ddb42cd3cb3297cU, 0x3de06d2d3cf0a677U, 0x3c1b0df53d6e67a4U,
  0x3cc7286f3c07dcf0U, 0x3d1f40953cb5fbd1U, 0x3d7af79b3dca2f82U, 0xbd9b9ac939e4431bU,
  0x3d0c986fbcdcd6b8U, 0xbd142733bce97de8U, 0x3ce78ff7bdc41b86U, 0x3dbecbb63d5d3679U,
  0x3d0e2507bd08d15fU, 0xbd899a51be2ba7c1U, 0xbd7ff120bda475a3U, 0x3caa4ef0bde49c6cU,
  0x3ab8932f3c320633U, 0xbda9963abda2176fU, 0xbd275f48bdd90f48U, 0xbd8a08e33bee1bc4U,
  0xbd0e11dfbd056944U, 0xb9adb0003ca6e0faU, 0x3cb17e9f3d0c57d6U, 0x3cd4a8fd3d9fc269U,
  0x3db77a863d9d259cU, 0xbca9c5703d67fe5bU, 0xbd5a62ec3d99a815U, 0xbdadf273bd603d60U,
  0xbd44086ebc9cc278U, 0xbc9c6eecbcedfc18U, 0x3d0e79b93d849bf6U, 0xbd0ed4a63ca88853U,
  0xbd76ea7c3d8dd8aeU, 0xbd16229e3d8179f9U, 0x3d5844d13da63b73U, 0x3d1579a8bd231070U,
  0xbcb949a93d469e36U, 0x3c26db7abd97bd93U, 0x3cc331d1bcd772afU, 0x3de964bf3d1c2abcU,
  0xbd94e226bb949ab4U, 0xbdd670e9bdd0bb94U, 0xbc01c4d23cdee9e1U, 0xbc429dfcbe0ce434U,
  0xbd9cfdccbd9f6cacU, 0x3d4b5bb9bd1f77bbU, 0xbd90a3bebd586a0dU, 0xbd7cf5033d1b69fdU,
  0xbd86cc5abc4488e6U, 0x3d5ecbabbb18669dU, 0xbd13201cbd36cf80U, 0xbd3a786b3d4202eaU,
  0x3e2115f4bd22bc1dU, 0x3db25f023dc13fe8U, 0xbc6f4bd03d1dbf30U, 0x3bfc8e00bd943ddfU,
  0xbd5c02bebb3635e0U, 0x3d16eb6ebe0508d4U, 0xbd4eb1013d1e32ebU, 0x3dcc9df13d98da5eU,
  0xbc9438cabd9a38bdU, 0x3d1632973d5a8517U, 0x3d1a6a0cbd532954U, 0x3cd2d388bd0f3752U,
  0x3d8e75113d597eceU, 0x3cf4163abd833627U, 0x3ce628de3d05da4cU, 0x3e2259b13e8d2703U,
  0x3ac118e13dea050eU, 0x3d3897ddbd3844f1U, 0xbc6bdadfbd047453U, 0xbca9b08fbda2de82U,
  0xbcf025e3bdf400d0U, 0xbd605b853da67bdaU, 0x3c7549c5bd828857U, 0xbd1af8ad3d9f348dU,
  0xbc9c6372bd3d4e8cU, 0x3d8e68eabd317aa4U, 0x3d88daf1bccbf988U, 0x3df33e26bc0586f1U,
  0x3d3a2de73d03d28cU, 0x3dc1c8ad3e3364e5U, 0xbd45e1573d0d7e2dU, 0x3db6a080bd8e3f75U,
  0xbcc57943bdb7d98bU, 0x3d9fc9203d51468bU, 0x3c5c578bbc170f9cU, 0xbc4b2820bc4bd7b4U,
  0x3cc12946bb036598U, 0xbd62f3d0bd324563U, 0xbd3dec52bd59134aU, 0x3d9218bebd0d96a7U,
  0xbda0ef443c0f5230U, 0xbd84e7d3bbcbfe5dU, 0x3c42580f3db89f03U, 0x3dd235823b0ffe77U,
  0x3e3219593d9b3002U, 0x3dbdf6033d9758d4U, 0x3980b0e4bd9b1866U, 0x3ca1fcbdbc0f73e6U,
  0xbd4a528dbabab6f4U, 0x3d8ad534bb1fb86aU, 0xbd71293abdad0064U, 0x3d8a872abdcc48fbU,
  0x3c6c8510bcace807U, 0xbd9ba469bd2e956fU, 0x3cc25d24bd09db69U, 0x3d8a68853c28a0a9U,
  0x3db6bccebca4c376U, 0xbcec85eabcfdb739U, 0x3dbb499a3ce3e988U, 0xbc14d712bc3b08eeU,
  0xbc400895bdd68a7aU, 0xbd974236bde70635U, 0xbc4586f6bc82fcb5U, 0x3d9aaa9c3c317d08U,
  0xbdba4ec1bb86a707U, 0xbd0889e6bdc6af0fU, 0x3dbfa63ebb17ddafU, 0xbc2971f0bd60aa62U,
  0x3d2734d63d12a74aU, 0xbd3b3f2bbc94bc7cU, 0xbd5286b8bd809c33U, 0xbcc619473d9ee123U,
  0xbc6cc076bd831fb5U, 0xbcc23d083dbd874cU, 0xbd983060bd3bfea3U, 0xbc3c1469bcaabd14U,
  0xbdf54364be1306d1U, 0x3c48fd7a3d0106aeU, 0xbd4c3e70bc7d17c3U, 0xbd0a9e08bd9df101U,
  0xb8cf8bb03d3d4877U, 0x3c5747283ce240c0U, 0xbc40f1a8bd4778bfU, 0xbdb67c553c25d38bU,
  0xbd4ad3cd3d0d1ab8U, 0xbd9771133d7f9c64U, 0xbd7115a2bd1ed063U, 0x3d8cae00bd6ed824U,
  0x3d250d70bd4574eaU, 0xbdbc0d0cbd6fe6e0U, 0xbc41c4773be6c5a7U, 0xbcac9912bbcf17f9U,
  0xbd69fa6d3d11a729U, 0x3c961357bd85fb6bU, 0x3d460af93d5d9716U, 0xbd98c9fdbc92801bU,
  0x3d4bdc5ebc682800U, 0x3ce18dc13b11d3e0U, 0x3ca29d0d3d456c7bU, 0xbd04ed5dbcc76d42U,
  0xbd9a053bbc803232U, 0xbdd4e960bd784915U, 0xbda5c1013cb134ebU, 0xbdd7ee6cbb9c8effU,
  0x3d2d347cbdd64819U, 0xbccb2c72bb14a2e6U, 0x3c3f89b33ce9ac59U, 0xbd83fea23a50f762U,
  0xbd902177bdd23d52U, 0x3d83665d3d9f83eeU, 0x3ae958803cf295ecU, 0x3d52ba8bbc7ad233U,
  0xbd32103c3cebfca7U, 0x3c8f5f4b3d8111ccU, 0xbd0c29cbbd104490U, 0xbd695bd1bd5a5369U,
  0xbba64202bdfa6696U, 0xbc99afddbbff2331U, 0xbdaa87bebe05de7aU, 0xbcfc8ce63c579cc0U,
  0xbd55dae7bd97f19aU, 0xbd89e3b6bd71897eU, 0x3d687048bd94af3cU, 0x3cdfc6c03d881843U,
  0xbbd7ac603ca35760U, 0xbd596e89bd9b5a57U, 0x3ce093df3c82c24aU, 0xbd09ccb8bd90e5efU,
  0xbd5392333cdcd58dU, 0x3a3d78693c80002aU, 0x3c2aefe5bd47feb1U, 0xbc85c55dbdbbe71fU,
  0xbb558557bd7cc121U, 0x3def08123ddecc80U, 0x3dc8fd243d83dfc3U, 0x3d0ee868bd7ea080U,
  0xbd92c31bbd9474d6U, 0x3c5e8bb03da06d9dU, 0xbc451d283d4ffeeeU, 0x3d3f5ce5bc33d238U,
  0x3d1d7eb0bd91af42U, 0xbe0198713c8f59eaU, 0xbb530fd9bb835b30U, 0xbb8e6c66bd3d8b93U,
  0xbd78fc86bdc740d8U, 0xbda54a1dbd5243d2U, 0x3c8388babd89bba7U, 0x3ce6ab47bc5dbef6U,
  0x3dfedaecbd03e041U, 0xbdb34eadbd1604b2U, 0xbd8603463d0e5c67U, 0xbcc4ff843d8db8c5U,
  0x3d803e9fb99ecb00U, 0xbd8b0312bc4968e0U, 0xbcd93189bd91fa2bU, 0xbdb34ebbbd83226cU,
  0xbd8f4848bd600138U, 0xbdc64d2cbdd08675U, 0xbdc1f1f7bd967ff5U, 0xbdd19ae5bda00636U,
  0x3db13209bd92a1ddU, 0x3e2f77b83e514e8dU, 0x3e255e3b3decda59U, 0x3dbd88c3bcc2a5f0U,
  0xbd7f6d8c3bc09f7bU, 0x3d57e482bd6ec04eU, 0xbd02b7be3bdc4520U, 0x3c961500bda04429U,
  0x3c761b96bd3ecd83U, 0x3c579a7e3d804c02U, 0xbcad94ec3d71bf30U, 0xbd7afbeabd598c8eU,
  0x3d8ee571bda0be6aU, 0xbd58c3d43d29660bU, 0x3e0b4d3a3d481851U, 0x3e2613d73e3e3406U,
  0x3db544cf3e4123afU, 0xbd77d6c03d533e39U, 0x3d3d4e6a3b74e56bU, 0xbd3ab834bc775b38U,
  0x3d7c3e7e3d223d8cU, 0x3d701ccebd0012e5U, 0xbd6f1d36bd8e3c21U, 0xbd268a8f3c911855U,
  0x3da66579bc5cf271U, 0xbd081cb9bd896180U, 0x3d4ac7523d41a5f5U, 0xbd3e8411bce62d6eU,
  0x3d21a7c23db8c496U, 0x3e1102cd3d00b2d1U, 0x3d5969be3e20ea32U, 0x3c626cd83d2b5e78U,
  0x3d34e812bc08d3d7U, 0x3da4ac4dbd62c1f0U, 0xbc4b0e903b70fa40U, 0x3c60bd6039101e00U,
  0x3d8f6325bae10c80U, 0x3c8b3612bcf4603aU, 0x3da7588b3d3b8191U, 0xbd34b0643d9afc65U,
  0xbd31c2b63d318d1cU, 0x38a26cef3d644510U, 0x3dce2586bcca328bU, 0x3d5b00623c10ef12U,
  0x3d536d82bda05fbeU, 0x3d48823c3d5d84e7U, 0x3d9aad9bbd788d5dU, 0x3cc046ec3ca36bbcU,
  0xbd8b25acba629d00U, 0xbd40ec30bd50e23eU, 0x3c693a803ccfcba4U, 0x3d1aace8bd627924U,
  0x3c7e2ea83c47bce8U, 0x3d2f8b3a3d605c4eU, 0x3c883796bbd461e5U, 0xbd83e2523cb775b4U,
  0x3ba5b8d0bc537f58U, 0x3c8d2accbd49f21aU, 0x3d9e75d7bd835beeU, 0xbd8bdf54bd0cc5dfU,
  0xbd24130a3d0d8c6eU, 0x3c0fe2d03c18b218U, 0x3d2b9d54bd95f2f3U, 0x3d349b02bd81400cU,
  0x3be531183d8f1c7bU, 0x3c4e2db73da79d0eU, 0x3d763a50bd7043afU, 0xbc061c78bd2fb9a0U,
  0x3e07fa8e3e0bca7fU, 0xbd098f083ce376d9U, 0x3da008be3d33b1b1U, 0x3db2df283db2c641U,
  0x3b63b8163e03d815U, 0xbcacd3c8bd6c9286U, 0xb8205800bd8baff8U, 0x3d878437bd964ed4U,
  0xbcbc71143d5e79baU, 0xbd0f78c7bd661120U, 0x3d2ad6db3d24392dU, 0x3d04e924bd8682d7U,
  0xbd45947a3d87c986U, 0x3cf34cf2bd0a56f7U, 0x3d84ac67bceae890U, 0x3d9e346b3db16f59U,
  0x3d1abfb83c932e7cU, 0x3e3c6ef83e2358c4U, 0x3e80a0963e89b1a9U, 0x3dd58e033e0620a3U,
  0x3da517b53ca7c45aU, 0x3c829df0bda51515U, 0x3da524b3bd917083U, 0x3b9c2ba7bc79ec89U,
  0x3d30d4b73db0c131U, 0x3d923cd23d257a04U, 0x3dae4cf53ce894d4U, 0xbc352e1a3cc85639U,
  0xbde0f604bd6faa7cU, 0xbd891fc5be0995b0U, 0xbdfb1bc4be522b0bU, 0x3c35312d3c1d1bd4U,
  0x3e779e203e156815U, 0x3e776da73e5559ffU, 0x3d3a27fe3e36f97eU, 0xbc720a80bd4ba155U,
  0x3d919145bc7e2f78U, 0x3d77c8663c07f9e0U, 0xbb9f9a19bd2ec890U, 0xbde4b45abce41927U,
  0x3d005c0a3cb87575U, 0xbdd4b6b73afd8d7fU, 0xbe63af32be9920f1U, 0xbda1655ebdfd24f7U,
  0xbda42dacbe1fcceaU, 0xbdb7e023bdc29be3U, 0x3de7265fbd4f75e9U, 0x3e89c8293e2f4f17U,
  0x3e16540a3e93ab7cU, 0xbd3ead1abd21a7aeU, 0xbd68edc63d0db6a2U, 0xbd9466193d9a616aU,
  0x3d136ef2bdb97ed6U, 0xbe3b6e8ebda699eaU, 0xbe1f09c43d476448U, 0xbe094735be188b4cU,
  0xbd734402bdb45085U, 0xbdc8657ebdd67ca0U, 0xbdfa7813be0498faU, 0xbd740c43be69765fU,
  0xbd975831bb53fbb7U, 0x3a9592fb3e0c3c18U, 0x3ea702a2bd04bd6fU, 0x3d492abc3d3d32deU,
  0xbd075d0a3c90e788U, 0xbb88d446bd07eeb8U, 0x3de6aa673e296fc5U, 0xbe0cdeeebe023dfdU,
  0xbd0bcdca3d479413U, 0xbe2ff8a4bd2599efU, 0xbd7a1013bd6c3f63U, 0xbdbfc628bcc7fb75U,
  0xbdee6952bc0ff132U, 0xbdc980febd98a3d6U, 0x3dad6ee83d8ec8ffU, 0x3dea5ec23e287693U,
  0x3e697ea23d5d3236U, 0x3dfe010d3dc9d09aU, 0xbc90e853bd8a5478U, 0x3dcc3dba3e0e2b78U,
  0xbcd23e253d82c829U, 0xbdafbec1bd45d9f3U, 0x3d4f200e3db5acd1U, 0xbe038810bcdbdc1fU,
  0xbd1770a7bcb3192aU, 0x3cb472523cca67cdU, 0x3dd634a1bc828b54U, 0x3da6cd0f3d2fcd42U,
  0x3e8102433e058ddfU, 0x3d8666243e964b69U, 0x3ea701c93d709e91U, 0x3e27fb4d3d7f700bU,
  0xba35a75e3e1b640aU, 0x3922ba7e3db4812dU, 0x3ce4ae57baeeda3bU, 0x3d8ab5fbbe070d34U,
  0x3d244b303dd03918U, 0xbdc69826bd9a95e9U, 0x3ce03253bd942f72U, 0x3e0a3c43bd5c54d5U,
  0x3db553163d0e2082U, 0x3d0acdb23dd06809U, 0x3e38230a3db1d1bfU, 0x3e8bc7913e58df0aU,
  0x3e9f40d53e935895U, 0x3d955d233e0c123fU, 0x3cfc9aa83bf691fbU, 0x3d8708663cd1fd03U,
  0x3d83a7e33c828ef4U, 0xbd8f4f6abc6a05f5U, 0x3bc255e13e03e756U, 0xbcadd2813ca0c991U,
  0x3d9fe66e3a34e811U, 0x3d938a1c3d7b2bcdU, 0xbd33bc983d16ea71U, 0xbd045c5f3da856acU,
  0x3d360b26bd19aaffU, 0x3e5ce6c7bd3d4743U, 0x3e735c003f2159a8U, 0x3cff2ed73de77e65U,
  0xbbd8c1e13d45a12eU, 0xbdc1ca3f3dbbc942U, 0x3e04431f3e42b4a9U, 0x3e0c0c5c3dee5e44U,
  0xbcb362443ce63349U, 0x3cc90afe3c7812b7U, 0x3c33651dbd6d7679U, 0x3df598aa3ddcd28cU,
  0xbda24d9abd5a67dcU, 0xbddaacfabdf55459U, 0xbe042627be829b6eU, 0x3d368a743d4b5b20U,
  0x3e35be173e9c0d9cU, 0x3d5838963e0c2016U, 0x3d7b5a673defc428U, 0xbd8243773e042348U,
  0xbda3962ebd9102f5U, 0x3d835c6dbc90269aU, 0x3de719523e169d5fU, 0x3cc09b17bb2e9bb5U,
  0xbe1183e5bdba5817U, 0xbd559389bdd436ebU, 0xbc3623fabda535f4U, 0xbe39d245be16d904U,
  0xbda913a1be83d45bU, 0xbd1916eebdb3209cU, 0x3e044f553e997914U, 0x3d4671afbc9194cdU,
  0x3d89f9973da49cedU, 0xbd14b7ac3e21f8f9U, 0xbe3af57fbe43a82eU, 0x3e08f684bcab9e61U,
  0x3da145603e3fd4f7U, 0x3df3c6993d0b8f0aU, 0xbd90aa7d3e0b9fb6U, 0xbe372763be87706cU,
  0x3dbd1d19bd334155U, 0xbd9336b7bd3acd4dU, 0xbd6d413bbe45928bU, 0x3cf9c84bbdf3b13cU,
  0x3e4069273e426d59U, 0x3d369ead3cf14147U, 0x3dde9d143d30ef76U, 0xbd91d4323d949414U,
  0xbd4389cdbd73daf0U, 0xbb7f1339bc4e3dabU, 0x3e8b2ff23dff6c01U, 0x3e26edd83ebb0258U,
  0xbe1c9cc3bd8424ccU, 0x3d08ced4be2158f7U, 0x3d6f334d3d085a8cU, 0xbdf645b4be2ecde6U,
  0xbba4c886bd2a6590U, 0x3d90f70d3cc6b032U, 0x3e321b823d8bce28U, 0xbcd9afb73cf08780U,
  0x3de95072bd73ffddU, 0x3cc00a623e12bc9fU, 0xbdf58272be3933e9U, 0xbdff3a46bd217e73U,
  0x3e3808e13dc2c25aU, 0x3e5661293e89120fU, 0xbdb5379fbdb9dae7U, 0x3bab5d34be20e6edU,
  0x3b48a3fd3d7d2947U, 0xbd972a97b939e7fcU, 0x3d390b023cd13114U, 0x3d8dc2533decfbc4U,
  0x3e67c8fb3d041c2cU, 0x3d8e229e3c1aed36U, 0x3ca231703d0469bcU, 0xbc022afabcc65491U,
  0xbdc6bcc33da67ca8U, 0xbda6b712be222c89U, 0x3db48d3cbbb4e374U, 0x3c0c92733d9ee554U,
  0xbd9336343ca12db4U, 0xbce81d4ebdfe09faU, 0x3dfc84513b1d2f1eU, 0x3a621963ba2e7b82U,
  0x3b2656833c5491abU, 0x3d0d7eb13cf1cb4fU, 0x3e8eadddbc1ab6f9U, 0x3d1adba03d19f790U,
  0xbd2889a53d05d00fU, 0xbdaf988abd87648dU, 0xbceeaadfbd0d1e74U, 0xbda6e3fbbc88a7a7U,
  0x3db2b03bbe000a24U, 0x3e122d0d3cf2763eU, 0xbdb6b2e7bd1804d1U, 0x3e0827f4bdb4e589U,
  0x3e11d05d3e2d7e8bU, 0xbd973fddbdf50234U, 0xbd47d72f3db2e48cU, 0x3e25ac54bd886924U,
  0x3ec761bc3bfb44dbU, 0x3ca643dd3dacf626U, 0xbc32dd633d3d8dc6U, 0xbdc2544f3d46521eU,
  0xbdaace483b1c5615U, 0xbdfe47cbbc715fc6U, 0x3e44e66bbd810706U, 0x3e15ae113e74c229U,
  0xbdd88e663d3499a6U, 0x3e67823b3ae3bb40U, 0x3dea70763e4b6682U, 0xbd5996f3bda4b749U,
  0x3d2164a53dd7905fU, 0xbd6eeefe3c081076U, 0x3e8125c33db3e568U, 0xbc3a62333e42756cU,
  0xbd71414a3dd51b9bU, 0xbd7531b8bddc5428U, 0xbdaae9843b93dd6eU, 0xbe01e91a3d529ab9U,
  0x3e247c543d908edfU, 0x3b4b03353d2c181aU, 0x3a2a22bc3d1997e4U, 0x3dd9d1283d6cb28aU,
  0xbd96964f3daa96e4U, 0x3abbddcfbe1ec989U, 0xbd8d18923d955112U, 0xbdda0888be88c2c1U,
  0x3e6f97593e0e313bU, 0xbb45cacb3acd9eb0U, 0x3d98c201bc91969cU, 0xbe3cea3c3cf046ffU,
  0xbcfb392ebe1c18a6U, 0xbd8c681e3c2046f9U, 0x3d8097503e1b5939U, 0xbdd5baabbc5e5a2cU,
  0xbc246384bdc9d7e9U, 0x3e4b542d3e115ab9U, 0xbe0891583c10566eU, 0xbe0440a2be0abf0bU,
  0xbe4d9911bdea24dbU, 0xbdfc2e09be631214U, 0x3db252e13e817403U, 0xbc0185833dc496eaU,
  0x3e2d8a5a3b655bc0U, 0xbe97efbc3bef036eU, 0xbe1e7b31be506441U, 0x3d58261cbd70b06cU,
